<pad>	0
<unk>	0
<bos>	0
<eos>	0
.	-2.7881
'	-3.92498
▁hin	-4.2702
?	-4.58597
▁	-4.61819
ን	-4.80458
▁ነው።	-4.8701
a	-4.89204
▁ቶም	-4.94544
▁toom	-4.9497
n	-5.08246
▁akka	-5.16667
e	-5.24065
▁ture	-5.40385
ee	-5.40667
▁ta	-5.4257
u	-5.43342
▁kana	-5.47759
▁koo	-5.52938
▁yeroo	-5.5922
▁waan	-5.59407
ው	-5.59704
።	-5.67048
▁qaba	-5.68599
▁ነበር።	-5.7062
▁tokko	-5.71309
▁danda	-5.74622
aa	-5.75251
▁nan	-5.78358
▁በጣም	-5.78732
▁jira	-5.81609
▁kun	-5.81857
▁isaa	-5.83424
▁ላይ	-5.85423
uu	-5.88088
ም	-5.91394
▁የ	-5.92454
▁ጊዜ	-5.92799
▁baay	-5.9326
▁na	-5.93782
ት	-5.97343
▁ni	-5.98038
▁natti	-5.98235
▁ውስጥ	-5.99134
▁ነገር	-6.03515
▁ይህ	-6.04584
▁sana	-6.0624
▁በ	-6.07251
▁ወደ	-6.08047
ል	-6.12449
ህ	-6.13209
▁sun	-6.15876
▁ani	-6.20103
ስ	-6.2095
▁ያ	-6.21349
▁ምን	-6.22475
▁si	-6.2505
▁kee	-6.26209
▁keessa	-6.27473
▁nama	-6.28056
▁irratti	-6.28374
ር	-6.33309
ረ	-6.34657
▁jiru	-6.35569
f	-6.36787
▁itti	-6.37847
tti	-6.39451
▁qabu	-6.40092
,	-6.40758
▁ከ	-6.41981
▁barbaada	-6.42646
▁ነው	-6.45615
▁ብዙ	-6.46555
▁gara	-6.4684
▁mana	-6.49806
ʼ	-6.50217
ለ	-6.51367
ቀ	-6.52147
an	-6.52395
▁አ	-6.54037
▁hunda	-6.54184
ደ	-6.54511
▁ነው፧	-6.54739
▁እና	-6.54755
▁akkas	-6.55397
▁ይ	-6.57634
▁አንድ	-6.57969
▁ጋር	-6.58124
▁ሰው	-6.59025
▁kan	-6.59102
ገ	-6.59751
ብ	-6.59817
▁yaada	-6.60958
▁dha	-6.61285
▁isa	-6.61318
ና	-6.6155
ም።	-6.62064
ጠ	-6.63437
▁ተ	-6.63794
▁ጥሩ	-6.65232
▁gaarii	-6.65413
▁እፈልጋለሁ።	-6.65931
▁ይህን	-6.66026
▁ምንም	-6.66451
dha	-6.66538
▁ማድረግ	-6.67365
▁waliin	-6.68599
▁miti	-6.6876
፧	-6.68922
ክ	-6.6912
i	-6.69442
ድ	-6.7003
eera	-6.72045
▁jedheen	-6.72356
▁ቤት	-6.72537
▁beeku	-6.727
s	-6.72775
▁ishee	-6.73168
▁ati	-6.73741
ታ	-6.73789
በ	-6.73949
ቅ	-6.74906
▁መ	-6.74967
▁akkan	-6.75045
▁naaf	-6.76934
ራ	-6.77497
ዋ	-6.78941
▁qofa	-6.7966
መ	-6.80742
▁baayyee	-6.81445
▁እዚህ	-6.82401
ነ	-6.82478
▁keessatti	-6.82795
▁namni	-6.83313
▁fi	-6.84166
ተ	-6.84242
▁irraa	-6.85341
፣	-6.85655
ግ	-6.87397
▁maal	-6.87571
▁booda	-6.88138
▁fakkaata	-6.89638
ውን	-6.90494
ሰ	-6.90668
ፈ	-6.90998
▁gochuu	-6.91126
ች	-6.91564
▁ያንን	-6.9237
▁አል	-6.93688
▁አሁን	-6.93889
▁beeka	-6.94081
▁maaliif	-6.94179
ሳ	-6.94957
▁ብቻ	-6.95121
een	-6.96728
▁እንዴት	-6.9705
ጥ	-6.9731
▁afaan	-6.97573
▁እ	-6.97694
▁እኔ	-6.97789
▁እንደ	-6.97949
▁mee	-6.99447
!	-6.99626
▁keessan	-6.99929
▁hundi	-7.00431
▁wal	-7.0083
▁ለምን	-7.00841
▁keenya	-7.01866
▁hojii	-7.02105
ፍ	-7.02311
▁keessaa	-7.0303
▁sa	-7.0326
▁ለ	-7.03352
▁ስለ	-7.03886
▁አይ	-7.0425
ላ	-7.0439
▁የሚ	-7.05102
▁ዛሬ	-7.05908
▁እሱ	-7.07435
▁አይደለም።	-7.07593
ኝ	-7.07963
▁ሁሉም	-7.09191
▁waa	-7.09584
▁ስራ	-7.10563
ባ	-7.10855
▁inni	-7.10978
ወ	-7.1162
▁amma	-7.11813
▁yoo	-7.12209
▁wanti	-7.13684
▁guddaa	-7.14402
▁ብዬ	-7.14628
▁guyyaa	-7.14896
▁qabda	-7.14958
▁caalaa	-7.16753
▁qabna	-7.17211
▁ት	-7.17495
ዳ	-7.17564
▁dhuguma	-7.18328
ዎች	-7.18595
▁irra	-7.1909
▁ያህል	-7.19553
ጣ	-7.20219
▁ነኝ።	-7.20289
▁yeroon	-7.21003
▁deebi	-7.21405
▁meerii	-7.21795
ከ	-7.21845
▁ትንሽ	-7.21949
aatii	-7.23108
tu	-7.24289
▁dhaga	-7.24471
ማ	-7.26146
ኩ	-7.26313
uuf	-7.26733
▁haa	-7.26784
ህን	-7.2715
ይ	-7.27244
▁barbaadu	-7.27894
▁as	-7.27981
▁of	-7.28599
▁ማ	-7.29787
▁ል	-7.30384
ቱ	-7.31673
▁nu	-7.32987
ያ	-7.33323
▁siif	-7.33396
b	-7.33688
▁har	-7.34353
▁እየ	-7.34791
▁ናቸው።	-7.35567
▁በኹዋላ	-7.35739
▁ba	-7.3608
ti	-7.36362
▁በዚህ	-7.36704
በት	-7.37528
▁"	-7.37821
ዘ	-7.38462
▁osoo	-7.39149
ጋ	-7.39283
▁konkolaataa	-7.39851
▁ግን	-7.40248
ዎ	-7.40347
▁አልችልም።	-7.40875
ካ	-7.41075
▁እንደሆነ	-7.41883
te	-7.42278
▁የት	-7.42332
m	-7.42424
▁turre	-7.42492
k	-7.43519
▁ሊ	-7.43572
ዝ	-7.44046
▁የተ	-7.44642
▁ይመስለኛል።	-7.44781
uun	-7.45174
▁toomii	-7.4536
▁akkamitti	-7.45837
▁ማርያም	-7.46518
ሽ	-7.46549
▁hanga	-7.47036
▁ሰዎች	-7.47212
▁garuu	-7.48416
▁bakka	-7.48962
▁barbaachisa	-7.49021
▁ይህንን	-7.49099
የ	-7.49273
▁dura	-7.50056
▁xiqqoo	-7.5062
▁አውቃለሁ።	-7.5074
▁sitti	-7.51653
▁isaanii	-7.51704
ቃ	-7.51868
▁ማን	-7.5203
▁asitti	-7.52316
▁ሁሉ	-7.54095
▁turte	-7.54245
in	-7.54574
▁tola	-7.5507
▁ያለ	-7.55261
▁በፊት	-7.55296
ቁ	-7.56074
▁አላውቅም።	-7.57297
ሁ	-7.57397
g	-7.57582
d	-7.57802
▁አት	-7.58375
▁ማንም	-7.58427
▁ገንዘብ	-7.58982
▁deema	-7.59414
▁አለብኝ።	-7.59847
▁kutaa	-7.60302
▁faransaayii	-7.60378
▁መሄድ	-7.60402
y	-7.60601
▁halkan	-7.62097
▁bu	-7.62207
▁መሆን	-7.62549
▁ajaa	-7.62558
▁dandeessu	-7.62558
ሉ	-7.62631
▁isin	-7.6355
▁dhugaa	-7.63833
▁fakkaatu	-7.64848
ቆ	-7.65619
▁biraa	-7.6566
▁maallaqa	-7.65877
r	-7.66228
▁ሲ	-7.66455
▁ተስፋ	-7.67315
▁namoonni	-7.68507
▁malee	-7.68509
ፋ	-7.69055
▁waanan	-7.69073
▁ቦታ	-7.69216
▁isaan	-7.69443
▁ፈረንሳይኛ	-7.69445
▁አይነት	-7.69797
▁ልጅ	-7.69862
▁ሌላ	-7.71208
ጉ	-7.72208
▁ammallee	-7.72746
▁እን	-7.73281
▁ayyaana	-7.73283
▁አለኝ።	-7.7359
ii	-7.75224
▁kaa	-7.75246
▁tokkollee	-7.75347
▁ችግር	-7.75401
▁ሰአት	-7.75831
▁eessa	-7.75913
ቶ	-7.76227
▁አለ።	-7.76233
▁ይመስላል።	-7.76271
▁qabdu	-7.76285
ሩ	-7.76439
▁ትናንት	-7.77275
▁lama	-7.77422
▁አስ	-7.77924
▁ka	-7.78371
▁አስባለሁ።	-7.78592
▁sadii	-7.78888
▁ga	-7.78912
▁manaa	-7.79075
▁jirra	-7.79194
▁ለመ	-7.79292
ዬ	-7.793
ኝ።	-7.796
▁የሆነ	-7.7962
▁አሁንም	-7.79816
"	-7.79917
▁du	-7.8022
oo	-7.80353
▁እንዲ	-7.80467
▁guutuu	-7.82008
▁maariyaam	-7.82172
▁dandeenye	-7.82194
▁saree	-7.82424
▁ቀን	-7.8252
▁kaleessa	-7.82653
ሪ	-7.8286
▁ታ	-7.82966
▁ይችላል።	-7.83003
ዎን	-7.83537
▁በላይ	-7.83776
ጨ	-7.83991
▁አንዳንድ	-7.84044
▁waggaa	-7.8438
▁nyaata	-7.84433
▁ነገ	-7.84643
▁ol	-7.84698
ሮ	-7.84817
▁ከዚህ	-7.84982
▁wajjin	-7.8514
▁harka	-7.85737
▁የለኝም።	-7.86102
ta	-7.86292
▁kanaa	-7.87994
▁jirta	-7.88074
▁gadi	-7.88264
▁haaraa	-7.88384
▁jiraa	-7.88561
tee	-7.88787
▁መንገድ	-7.89153
▁እወዳለሁ።	-7.89317
ገባ	-7.89671
ች።	-7.8997
▁ስ	-7.90117
ama	-7.90223
▁boru	-7.90307
▁bara	-7.90506
▁እንደሚ	-7.90561
▁dandeessaa	-7.90641
▁homaa	-7.90984
▁ሙሉ	-7.91306
ne	-7.91636
▁dhiifama	-7.91977
ሻ	-7.92965
▁isheen	-7.93102
▁haasa	-7.93177
dhaan	-7.93732
▁የበለጠ	-7.94364
▁karaa	-7.94451
▁አላ	-7.94453
▁መኪና	-7.94694
▁አልፈልግም።	-7.96147
▁gonkumaa	-7.96987
▁አለብን።	-7.97164
▁jaalladha	-7.97342
▁አመት	-7.97411
▁አይደል፧	-7.9752
▁ትልቅ	-7.9752
▁achi	-7.97521
ጫ	-7.97675
▁እርግጠኛ	-7.97698
▁dheeraa	-7.98278
▁jedhee	-7.9831
ሰማ	-7.99007
ጭ	-7.99827
▁ho	-7.99851
▁ganama	-8.00045
▁በመ	-8.00068
ሄድ	-8.00144
▁eenyu	-8.00305
ame	-8.00352
ኮ	-8.00531
▁meeqa	-8.0091
▁rakkoo	-8.01281
▁ነች።	-8.01757
▁እንደገና	-8.02075
▁አለው።	-8.02089
▁አሳ	-8.02348
ው።	-8.02479
▁እችላለሁ፧	-8.03019
▁እያ	-8.03084
▁barumsaa	-8.03093
▁ከባድ	-8.03577
▁hojiin	-8.03729
ሉ።	-8.03785
▁bishaan	-8.0389
▁innis	-8.04073
▁ሁኔታ	-8.04218
▁መጽሀፍ	-8.04278
▁የለም።	-8.04565
ኛ	-8.04585
▁dogoggora	-8.04958
ዛ	-8.05243
▁ትምህርት	-8.05294
▁namoota	-8.06476
▁ማታ	-8.06516
▁ከመ	-8.06555
▁balaa	-8.06573
▁mitii	-8.06596
▁ስንት	-8.06694
▁barbaachisu	-8.06846
ቡ	-8.07106
ዱ	-8.07138
▁garmalee	-8.07434
▁ደስተኛ	-8.07451
▁turan	-8.07634
▁አለ፧	-8.08084
▁muraasa	-8.08392
▁kophaa	-8.08422
▁ሰ	-8.08463
▁ammas	-8.08542
▁hojjechuu	-8.08843
▁ለማድረግ	-8.0922
▁ክፍል	-8.0922
ነት	-8.09424
▁ሁሉንም	-8.09424
▁ማለት	-8.09844
▁gaaffii	-8.10229
▁ቶምን	-8.10259
▁adda	-8.10417
ም፧	-8.10489
▁maali	-8.10533
▁jirti	-8.10631
ሞ	-8.10725
▁carraa	-8.11045
o	-8.1107
ን።	-8.11108
▁silaa	-8.11126
▁ማየት	-8.11243
▁kanaan	-8.11598
▁አይደለሁም።	-8.11874
▁sirrii	-8.11898
▁ነበር፧	-8.12133
ናል።	-8.12545
▁taane	-8.12659
ዋል።	-8.12972
ቴ	-8.13182
▁ምግብ	-8.1331
▁hedduu	-8.13392
ል።	-8.13561
▁abbaan	-8.14071
era	-8.14714
af	-8.16454
▁torban	-8.16484
▁deemuu	-8.16559
▁yaade	-8.16904
ሙ	-8.17447
ሎ	-8.17604
▁lamaan	-8.17892
wwan	-8.17996
ት።	-8.18027
ጽ	-8.18104
▁አደርጋለሁ።	-8.18237
ቻ	-8.18357
▁እውነት	-8.18442
ዎችን	-8.19046
▁ሁለት	-8.19102
▁የማ	-8.19534
▁darbe	-8.19715
t	-8.19897
▁kanaaf	-8.20044
▁ቆንጆ	-8.20213
▁የቶም	-8.20214
▁sanatti	-8.2027
▁kitaaba	-8.20299
መጣ	-8.20318
atti	-8.20452
▁osoon	-8.20457
▁maaltu	-8.2048
▁ji	-8.20493
▁dubbachuu	-8.20558
▁barbaade	-8.20638
ዋን	-8.20649
▁manni	-8.20662
▁ብ	-8.20673
▁እንድት	-8.20832
▁ti	-8.20916
▁አን	-8.21236
▁kootti	-8.21255
▁እባክህ	-8.21337
▁አልተ	-8.21501
እ	-8.21564
ሬ	-8.21617
▁kooti	-8.21628
▁gochuuf	-8.21737
▁gochuun	-8.21749
▁haala	-8.21985
▁nuti	-8.22401
▁ይፈልጋሉ፧	-8.22473
▁deemuun	-8.22661
p	-8.22973
▁ijoollee	-8.23015
ተኛ	-8.23028
▁እንደዚህ	-8.23161
▁የም	-8.232
▁ቃል	-8.23232
▁dhufe	-8.23362
▁akkasitti	-8.2344
c	-8.23755
▁ማወቅ	-8.23854
▁godhu	-8.24088
▁እዚያ	-8.24091
▁ሀሳብ	-8.24119
▁እንድ	-8.2423
ኛል።	-8.24269
▁ሶስት	-8.24319
ወጣ	-8.24325
ሆን	-8.24454
ቶች	-8.24467
tiin	-8.24497
▁ባ	-8.24548
▁naannoo	-8.24846
▁yoom	-8.25113
ኑ	-8.25493
l	-8.2554
aan	-8.25542
ለው	-8.25567
▁dhufu	-8.25693
▁ድረስ	-8.25726
▁አለብህ።	-8.25962
ለች።	-8.26501
▁አንተ	-8.26572
▁deeme	-8.26675
▁አዲስ	-8.26691
ታል።	-8.27006
▁ትችላለህ፧	-8.27157
▁ማርያምን	-8.27291
ቼ	-8.27353
▁dhiisuu	-8.27444
▁የእኔ	-8.27665
ሚ	-8.27756
▁መቼ	-8.28322
▁የመ	-8.28459
▁deemu	-8.2859
▁ያለው	-8.28776
▁ከእኔ	-8.28858
▁abbaa	-8.28927
▁jechuu	-8.28978
ሰራ	-8.29169
▁arguu	-8.29203
▁hime	-8.29317
▁ጉዳይ	-8.29332
▁ነህ።	-8.29482
▁ነ	-8.29612
▁tokkon	-8.30105
ኖ	-8.30326
▁dandeessa	-8.30513
▁beekuu	-8.31463
ቱን	-8.31486
▁erga	-8.31725
▁dhimma	-8.3181
▁እየተ	-8.31919
▁hamaa	-8.32345
▁አልነበረም።	-8.32582
▁dhagahama	-8.33073
si	-8.33134
▁በአ	-8.33143
▁ሁልጊዜ	-8.33327
▁መጥፎ	-8.33331
▁godhe	-8.3339
▁mi	-8.33447
▁ቀላል	-8.33587
ሱ	-8.33607
▁akkasii	-8.33653
▁taa	-8.33675
▁arge	-8.34074
▁ላ	-8.34084
▁isheenis	-8.34147
▁uffata	-8.34351
▁barbaaddaa	-8.34576
ef	-8.34643
▁ጠ	-8.34712
ጎ	-8.34843
▁በእውነት	-8.34868
ni	-8.34945
▁ገና	-8.35223
ዬን	-8.35392
ra	-8.36026
iin	-8.36135
▁roobni	-8.3617
dhaa	-8.36188
▁አለበት።	-8.36205
▁ይሆናል።	-8.36258
▁gargaarsa	-8.36432
▁እሱዋ	-8.36557
▁ልጆች	-8.36695
amu	-8.37102
ፊ	-8.37443
▁በቂ	-8.37571
▁mirkanaa	-8.37755
▁akkuma	-8.37755
▁እስካሁን	-8.37755
▁sagalee	-8.3778
ቦ	-8.37821
▁qabne	-8.37869
ኩ።	-8.37917
▁boo	-8.37922
▁ሳ	-8.38465
▁እንዳ	-8.38564
▁akkam	-8.38856
▁hundumaa	-8.39095
▁boqonnaa	-8.39392
ችን	-8.3952
▁sirriitti	-8.39583
▁ታውቃለህ፧	-8.39648
ሃ	-8.39857
▁balbala	-8.39908
▁daa	-8.40598
▁abdiin	-8.40662
▁ስሜት	-8.40783
▁masqalaa	-8.41003
▁barbaanne	-8.41278
▁አስፈላጊ	-8.41278
."	-8.41448
▁gatii	-8.41818
w	-8.41939
▁ሴት	-8.42111
▁ስህተት	-8.4213
▁ነገሮች	-8.42149
▁biyya	-8.42385
▁አይመስለኝም።	-8.42683
▁የለውም።	-8.42697
▁ገ	-8.42763
▁ቀ	-8.42835
▁በትክክል	-8.42947
▁jiraachuu	-8.42957
▁beektaa	-8.43071
▁hamma	-8.43168
▁ሊሆን	-8.43299
▁hojjechaa	-8.4351
▁jedhe	-8.43544
▁ilaalaa	-8.4363
▁jaalladhu	-8.43792
▁ምናልባት	-8.43792
▁ala	-8.43972
▁እስከ	-8.44104
▁tapha	-8.44405
ma	-8.44512
ለሁ።	-8.44661
ዊ	-8.45217
sa	-8.45267
inaa	-8.45275
-	-8.45504
▁qabnu	-8.45504
ar	-8.46328
▁jaappaan	-8.46362
▁dafee	-8.46372
ው፧	-8.46401
ጅ	-8.46455
▁ija	-8.46481
▁qabdi	-8.46662
▁nuuf	-8.47035
▁fedhii	-8.47226
ጀ	-8.47229
ቸው	-8.47265
▁ነን።	-8.47287
ዙ	-8.47508
▁kenne	-8.47509
▁ካ	-8.47562
▁እንዳለ	-8.47676
▁maaloo	-8.4774
▁haadha	-8.4779
▁እርስዎ	-8.47929
ጸ	-8.48081
▁daqiiqaa	-8.48128
▁ምንድን	-8.48138
▁jechuun	-8.48336
▁mul	-8.48424
▁የአ	-8.48873
▁kenni	-8.48997
▁deebii	-8.49148
▁ብሎ	-8.4933
ቤ	-8.49485
▁jirtu	-8.49799
▁kennuu	-8.49903
▁ዝናብ	-8.50218
▁ውጭ	-8.50224
▁አለህ፧	-8.50332
▁ማግኘት	-8.5052
▁እንዲህ	-8.50654
▁ijoolleen	-8.50713
▁ofii	-8.50842
▁ጠዋት	-8.51127
▁akkamii	-8.51319
▁አስደሳች	-8.51432
▁አደጋ	-8.51657
▁gargaaruu	-8.51764
▁walitti	-8.51778
ቱዋል።	-8.51829
▁mataa	-8.52303
x	-8.52342
▁በፍጥነት	-8.52352
▁maqaa	-8.52362
▁salphaa	-8.52446
aniiru	-8.5254
▁jedhu	-8.52661
▁yaadda	-8.52665
▁s	-8.53053
▁እንኳን	-8.53281
▁ለቶም	-8.53281
▁gahaa	-8.53464
▁ሳምንት	-8.53592
▁በደንብ	-8.53593
▁godha	-8.53619
na	-8.54252
▁sareen	-8.54691
▁ይችላሉ።	-8.54869
amuu	-8.5487
is	-8.54886
▁dhufuu	-8.5501
▁ወ	-8.55039
▁ጥቂት	-8.55165
uf	-8.55233
ጓ	-8.55423
▁himuu	-8.55464
▁ደህና	-8.55483
▁አባቴ	-8.55483
▁ሁል	-8.55488
▁ደስ	-8.55579
▁jirtaa	-8.5568
ዶ	-8.55708
▁ሆኖ	-8.55801
▁diimaa	-8.55802
▁መናገር	-8.55905
▁argachuu	-8.55983
▁sanaa	-8.5599
▁dandeenyu	-8.5612
▁በየቀኑ	-8.5612
▁miira	-8.56124
▁እንደም	-8.56374
▁በሚቀጥለው	-8.56441
▁ጓደኛ	-8.56537
▁barbaachisaa	-8.56727
▁በሙሉ	-8.56763
▁ተጨማሪ	-8.56763
ገኝ	-8.56812
▁eegaa	-8.57154
▁gaariitti	-8.57234
ኔ	-8.57268
▁bilbila	-8.5739
▁ባለፈው	-8.57409
▁ትፈልጋለህ፧	-8.57425
▁manaatti	-8.57677
▁kophee	-8.57777
▁ያስ	-8.57907
ሜ	-8.58012
ዋል፧	-8.58069
▁walii	-8.58109
taa	-8.58121
▁ዘ	-8.58146
▁hunduu	-8.58386
en	-8.58424
▁ጥያቄ	-8.58504
▁እነዚህ	-8.58557
▁magaalaa	-8.58714
▁ቦስተን	-8.58714
ለን።	-8.58995
▁የምት	-8.59029
▁suuraa	-8.59085
▁rakkoon	-8.59132
▁jireenya	-8.59238
▁የተሻለ	-8.59373
ቱዋ	-8.59374
eef	-8.59378
▁dabalataa	-8.59427
ሌ	-8.59677
▁ይችላሉ፧	-8.59711
▁teessoo	-8.5976
ል፧	-8.5987
▁ስለዚህ	-8.60036
ህ፧	-8.6015
▁ይሰማኛል።	-8.60369
በረ	-8.60531
▁wayya	-8.60704
▁እኛ	-8.6072
▁nagaa	-8.6078
▁nyaataa	-8.61033
▁ቡና	-8.61042
▁foddaa	-8.61376
▁ወይም	-8.61444
▁ውሃ	-8.61459
▁ደ	-8.61571
▁tokkotti	-8.61645
▁አሉ።	-8.61721
ዩ	-8.61738
nii	-8.61785
▁jalqabe	-8.62196
ችሁ	-8.62363
▁በማ	-8.62489
በላ	-8.62566
▁barbaaddu	-8.62583
▁ፈ	-8.62887
▁ifa	-8.62911
adha	-8.62983
▁ለማ	-8.62991
▁ልት	-8.63027
▁guyyaan	-8.63161
▁እድል	-8.63444
▁abdii	-8.63503
▁tokkoon	-8.63663
▁muka	-8.63765
▁እችላለሁ።	-8.63807
▁አያውቅም።	-8.63813
ችው።	-8.6387
▁bira	-8.63984
▁nyaachuu	-8.64026
▁የቤት	-8.64112
▁መስራት	-8.64117
▁ቀናት	-8.64161
▁addunyaa	-8.6424
ገዛ	-8.64328
ለሁ	-8.64374
ጡ	-8.64426
▁warra	-8.64753
▁qofan	-8.64798
ጃ	-8.64804
▁ምክንያት	-8.65157
▁buna	-8.65291
ፉ	-8.65459
▁guddaadha	-8.65646
▁beektu	-8.6578
▁ለእኔ	-8.65878
▁eenyutu	-8.65996
▁ሁላችንም	-8.66263
▁duraan	-8.66402
ata	-8.66474
▁jaallata	-8.66508
▁qabduu	-8.6651
ሊ	-8.66665
▁አላውቅም	-8.66934
▁ዋጋ	-8.67118
▁ጥ	-8.67142
▁sababa	-8.67282
▁ያን	-8.67419
ሁ።	-8.67468
▁በእ	-8.67535
niiru	-8.67636
▁kamiyyuu	-8.6764
▁እመኛለሁ።	-8.67651
▁አታ	-8.67894
tan	-8.67972
▁ረጅም	-8.67999
▁እርዳታ	-8.67999
▁በአንድ	-8.68
nu	-8.68001
▁xumur	-8.68124
▁barbaadde	-8.6836
▁galgala	-8.6836
▁konkolaataan	-8.68374
▁አይችልም።	-8.68387
▁gaafate	-8.6892
▁buufata	-8.69056
▁gammachuu	-8.69086
▁በቅርቡ	-8.69086
tii	-8.69195
▁jalqaba	-8.69251
▁ከተማ	-8.69343
ናገር	-8.69427
▁hojjetu	-8.69451
▁ነበር	-8.69562
ቸ	-8.69609
achuu	-8.69675
▁waadaa	-8.69819
▁fakkaate	-8.6983
ተው	-8.69833
▁ብለው	-8.70231
▁ከቶም	-8.70555
▁አልቻልኩም።	-8.70564
▁እንዳለብኝ	-8.70567
ዲ	-8.70629
ቲ	-8.70922
ፕ	-8.70923
▁ም	-8.71005
▁qabaachuu	-8.71153
▁qabaa	-8.71239
▁hiriyyoota	-8.71296
▁ትክክል	-8.71296
▁እሱን	-8.71393
▁kennaa	-8.71498
ኩት።	-8.71643
ss	-8.71678
▁amanuu	-8.71938
▁guutummaatti	-8.72043
▁እባካችሁ	-8.72043
▁sammuu	-8.72044
▁መብላት	-8.72178
▁jaallatu	-8.72419
አ	-8.72631
▁የሚያ	-8.72679
▁ክ	-8.72976
▁hojjeta	-8.73145
dhaaf	-8.73188
▁isaaf	-8.73461
▁ammaa	-8.73469
rra	-8.73557
▁ፍላጎት	-8.73583
▁isiniif	-8.73976
▁ወር	-8.74156
▁tarii	-8.74225
▁ከአ	-8.74229
▁p	-8.74254
anii	-8.74265
ch	-8.74274
▁hafe	-8.74369
▁dambalii	-8.74386
▁irbaata	-8.74705
በር	-8.75027
ቢ	-8.75159
▁haati	-8.75379
▁አለብዎት።	-8.75479
▁guddaan	-8.76182
▁አልወድም።	-8.76258
▁fudhachuu	-8.76263
▁durii	-8.76689
▁jibba	-8.76781
ሆኑ	-8.76965
▁seenaa	-8.77148
▁anis	-8.77449
atu	-8.77957
▁አመታት	-8.78238
▁hima	-8.78239
▁al	-8.78449
▁bitachuu	-8.78464
▁barbaadda	-8.78679
ቹ	-8.78856
▁hirriba	-8.78986
▁yaalaa	-8.79004
▁oolu	-8.79062
▁kenna	-8.79164
▁ውሻ	-8.79315
ያለሁ።	-8.79605
la	-8.79786
▁እንግዳ	-8.79845
▁goote	-8.79889
er	-8.79968
▁argadhe	-8.80116
ፎ	-8.80145
▁yaaddu	-8.80251
ኖር	-8.80284
▁amana	-8.80314
▁አይችሉም።	-8.81069
▁አስቤ	-8.81127
▁qoosaa	-8.81289
▁cimaa	-8.81314
▁jecha	-8.81425
▁qillee	-8.8148
▁መጠበቅ	-8.8152
ኩት	-8.81692
▁dubbata	-8.81727
▁ደቂቃ	-8.8174
▁በእርግጥ	-8.81945
▁ቢ	-8.81979
▁qilleensaa	-8.82001
h	-8.82156
▁obboleessa	-8.82309
▁ቀደም	-8.82309
▁gala	-8.82328
▁ነበሩ።	-8.82387
etti	-8.82482
ኝም።	-8.82543
▁ammaatti	-8.82649
▁ከፍ	-8.82677
▁ዝም	-8.82833
▁tokkoof	-8.82865
▁d	-8.83039
▁ይቅርታ	-8.83143
▁argine	-8.83372
▁ነኝ	-8.83661
▁dhugaatii	-8.83727
▁xalayaa	-8.838
▁አያ	-8.83856
መለስ	-8.83873
ibaa	-8.83934
saa	-8.84099
▁hojjedhu	-8.8441
tta	-8.84464
▁dhiyootti	-8.84479
▁barachuu	-8.84481
ቻለሁ።	-8.84772
▁ታሪክ	-8.84835
▁መስሎኝ	-8.84854
▁gaafachuu	-8.84916
▁fiilmii	-8.85082
da	-8.85083
maa	-8.85149
ለህ፧	-8.85387
▁የኔ	-8.85616
▁walakkaa	-8.85692
▁furtuu	-8.85695
▁ብዙም	-8.86042
▁dhumaa	-8.86099
▁muuziqaa	-8.86556
▁ህይወት	-8.86556
▁ስት	-8.86779
▁ብዙውን	-8.86839
▁lafa	-8.86868
▁dhuma	-8.86919
▁በፍጹም	-8.8699
▁ነበረብኝ።	-8.87011
▁siree	-8.87016
▁maatii	-8.87298
▁ደብዳቤ	-8.87322
▁moo	-8.87363
▁galatoomaa	-8.87427
▁warri	-8.87427
▁ዝግጁ	-8.87427
▁አለ	-8.87428
▁barsiisaa	-8.87436
▁መግዛት	-8.88306
▁tv	-8.88309
▁ቤቱ	-8.88444
▁qabdaa	-8.88558
▁filannoo	-8.88582
▁መምጣት	-8.88882
▁umuriin	-8.89075
▁karoora	-8.89193
▁fuula	-8.89194
ዎቹ	-8.89326
amne	-8.89438
▁ጉዞ	-8.8964
▁dandeenya	-8.89785
ገር	-8.89934
▁እናቴ	-8.89987
▁ameerikaa	-8.90088
▁hiriyyaa	-8.90088
▁intala	-8.90088
▁ለዚህ	-8.90088
ፈልግ	-8.90288
▁kaffaltii	-8.90539
▁tamboo	-8.90539
ዋለሁ።	-8.90696
▁hir	-8.9072
▁በሩን	-8.90738
▁እቅድ	-8.90992
▁የገና	-8.90995
ate	-8.91072
▁goone	-8.91447
▁c	-8.91481
laa	-8.91486
▁መኖር	-8.91578
▁qurxummii	-8.9175
▁ilaaluu	-8.91869
▁booston	-8.91893
▁jalqabaa	-8.91985
ሴ	-8.91992
▁yaadu	-8.92021
▁toomiin	-8.92078
▁jaalallee	-8.92362
ኪ	-8.92775
▁ይፈልጋል።	-8.92822
ተዋል።	-8.92827
▁በመጨረሻ	-8.92834
ዎት	-8.93124
▁kubbaa	-8.93285
▁ቁጥር	-8.93285
▁xiqqaa	-8.9335
ውቅ	-8.93786
▁galaanaa	-8.93933
▁ምሽት	-8.94217
▁ነበርኩ።	-8.94247
▁jiraata	-8.94299
▁jaallattu	-8.94687
▁qormaata	-8.94687
▁rifeensa	-8.94687
▁biskileetii	-8.94705
ልኝ	-8.94775
▁ግ	-8.94906
ፈራ	-8.9494
▁hedduun	-8.94964
▁fayyaa	-8.94993
▁alaa	-8.95054
ሀ	-8.95132
le	-8.95268
ሆ	-8.95303
▁saffisaan	-8.95339
▁አጥ	-8.95471
al	-8.9548
ኒ	-8.95628
▁milkaa	-8.95632
▁halluu	-8.95632
▁ስጦታ	-8.95632
▁እሁድ	-8.95633
▁jettanii	-8.95635
▁jettee	-8.95715
z	-8.96108
▁ከእርስዎ	-8.96108
▁deemaa	-8.96178
▁ቀዝቃዛ	-8.96195
▁arguun	-8.96338
▁እባክዎን	-8.96464
ጎዳ	-8.96487
▁ውድ	-8.96491
▁qophaa	-8.96587
▁የእርስዎ	-8.96587
▁አላምንም።	-8.96587
ሃል።	-8.96915
kii	-8.96938
▁to	-8.97014
▁ተናግሯል።	-8.9709
tuu	-8.97155
toota	-8.9722
▁achitti	-8.97515
▁laaqana	-8.97551
▁qarshii	-8.97551
▁አልቻለም።	-8.97551
▁ማውራት	-8.97551
▁የማይ	-8.97687
ማር	-8.97734
ት፧	-8.97847
▁boston	-8.98036
▁አስቸጋሪ	-8.98036
▁edaa	-8.98038
1	-8.98051
iif	-8.98111
▁የእሱ	-8.98456
▁መጫወት	-8.98524
▁wayinii	-8.98524
▁ደረጃ	-8.98524
▁fudhate	-8.98639
▁መማር	-8.98645
ንም።	-8.98802
chi	-8.98938
▁sadarkaa	-8.99014
▁ወደዚያ	-8.99014
▁a	-8.99139
▁ana	-8.99278
ina	-8.99411
ጠጣ	-8.9943
ima	-8.99434
▁ከተ	-8.99442
▁በዚያ	-8.99507
▁fayyadamuu	-8.99982
▁ተመሳሳይ	-9.00002
▁እረፍት	-9.00002
▁kutaan	-9.00023
▁deemne	-9.00317
▁fayyadam	-9.00335
▁qaamaa	-9.00451
▁ይወዳል።	-9.00499
▁ፊት	-9.00504
▁jiran	-9.00887
▁obboleettii	-9.00893
▁gorsa	-9.00999
▁kitaabni	-9.00999
▁beekne	-9.01017
▁dhabe	-9.01153
▁ብቻዬን	-9.01187
amaa	-9.01248
▁galle	-9.01587
▁oduu	-9.01652
ati	-9.01667
▁አንዱ	-9.0177
ራት	-9.01904
▁akkaataa	-9.01918
▁ስራውን	-9.01937
ስት	-9.01993
▁dhufa	-9.02083
ሃል፧	-9.02152
ኬ	-9.02253
▁እንደምት	-9.02293
▁እንፈልጋለን።	-9.02514
▁ፈልጌ	-9.02514
▁hojjenne	-9.02515
▁አሉኝ።	-9.02531
▁arganne	-9.02546
iree	-9.02606
se	-9.02692
▁taphachuu	-9.02754
▁እሄዳለሁ።	-9.03036
▁እንዳል	-9.03386
▁ሞ	-9.03417
▁minjaala	-9.03537
▁qarqara	-9.03537
▁በጭራሽ	-9.03537
▁የአየር	-9.03538
ተናል።	-9.03715
▁መቆየት	-9.04053
▁isinitti	-9.04089
▁tokkoo	-9.04116
ጠራ	-9.04117
▁gaa	-9.04556
▁እውነቱን	-9.04684
ፈር	-9.0474
▁beekta	-9.04954
▁otobusii	-9.05055
ሞት	-9.05067
▁ለማርያም	-9.05092
▁ከአሁን	-9.05093
▁caalaatti	-9.05146
ታችን	-9.05183
▁ስም	-9.05417
▁mudate	-9.05432
▁barreessuu	-9.05448
▁miila	-9.05582
▁deemnu	-9.05615
▁መካከል	-9.05615
▁gammadeera	-9.05628
▁ማንበብ	-9.0564
▁የእ	-9.05879
ንግ	-9.05963
ሶ	-9.05972
▁miidh	-9.06097
▁imala	-9.06149
▁muraasaaf	-9.06222
▁jalaa	-9.06396
▁isaatiin	-9.06844
roo	-9.06895
ቆም	-9.07075
llee	-9.0712
▁b	-9.0714
▁galmee	-9.07228
▁haalli	-9.07255
▁turuu	-9.07303
▁Toom	-9.07485
▁meeshaa	-9.07722
▁hundinuu	-9.07752
▁አሉት።	-9.07784
ወሰ	-9.08059
ሉ፧	-9.08089
ጠፋ	-9.0814
▁baasuu	-9.08147
▁deemuuf	-9.08206
▁kitaabota	-9.08275
▁በቦስተን	-9.08275
▁ጎበዝ	-9.08275
▁tasaa	-9.08322
▁eeguu	-9.08322
ወስድ	-9.08412
▁ቀኑን	-9.08414
▁waajjira	-9.08816
▁ጓደኞች	-9.08816
▁qilleensi	-9.08816
▁ለገና	-9.08817
▁gammachiisa	-9.08897
ልክ	-9.09103
▁jala	-9.0911
▁gaariin	-9.09146
▁kootiif	-9.0915
▁nutti	-9.09235
▁jette	-9.09264
▁ጓደኛዬ	-9.09294
▁መዋኘት	-9.09359
▁ሙዚቃ	-9.09359
▁isniina	-9.09359
▁sirba	-9.0936
▁ልክ	-9.09458
▁ነህ፧	-9.09515
sh	-9.09694
▁qaban	-9.09875
▁jettu	-9.09906
▁qalama	-9.09906
▁ልታ	-9.09991
iba	-9.10069
▁በተ	-9.10318
▁tilmaama	-9.10342
ብር	-9.10372
ሩ።	-9.10379
oonni	-9.10628
▁ተከ	-9.1077
▁darba	-9.10853
▁ለአንድ	-9.11008
▁ስር	-9.11079
▁mo	-9.11398
ሪያ	-9.11602
▁shan	-9.118
ብኝ	-9.11837
▁qorra	-9.12018
ወደ	-9.12121
▁socho	-9.12121
▁ከሰአት	-9.12122
▁illee	-9.12123
▁xiqqaadha	-9.12356
▁gowwaa	-9.12684
▁ለማግኘት	-9.12684
▁ሰኞ	-9.12684
▁ፖሊስ	-9.12684
▁ፎቶ	-9.12684
▁doonii	-9.1269
ለህ።	-9.12772
teettaa	-9.12785
▁arga	-9.12813
▁dhiisaa	-9.1298
▁eeggannoo	-9.13212
ነሳ	-9.13223
▁bakki	-9.13249
▁waaree	-9.13251
ስማማ	-9.13259
▁namatti	-9.13263
ነው	-9.13313
▁bita	-9.13334
▁baabura	-9.13378
▁lubbuun	-9.13517
▁ilaala	-9.13644
ኩም።	-9.13656
ልኝ።	-9.13656
▁suuta	-9.13817
▁eenyuutu	-9.13818
▁iyyuu	-9.13839
▁himaa	-9.13914
▁eessaa	-9.1393
▁መልስ	-9.14154
▁narra	-9.14208
ዴ	-9.14339
▁mucaa	-9.14354
▁እንዳት	-9.14357
▁ቁዋንቁዋ	-9.14359
ሹ	-9.14367
ወስ	-9.14383
▁ድምጽ	-9.14388
▁ናቸው፧	-9.14431
dii	-9.14562
▁ልብስ	-9.14568
▁qorraa	-9.14908
▁እንቅልፍ	-9.14963
▁ፊልም	-9.14963
ድር	-9.14988
sii	-9.1506
▁ባለ	-9.15206
ዚ	-9.15438
▁ቀይ	-9.15518
▁doolaara	-9.15541
▁ለማየት	-9.15541
▁mucaan	-9.15575
▁ልን	-9.15606
▁አው	-9.15705
▁kootii	-9.15706
▁salphaadha	-9.1571
▁በሚ	-9.15765
▁keessaniif	-9.15889
il	-9.15915
▁guyyoota	-9.16122
▁yoomiyyuu	-9.16122
▁መጀመሪያ	-9.16122
▁yaadni	-9.16132
ትን	-9.16142
▁bilisa	-9.16161
▁dhumarratti	-9.16707
▁ሁሌም	-9.16707
▁ግልጽ	-9.16707
▁ያውቃል።	-9.16741
ሃለሁ።	-9.16743
ዮ	-9.16898
▁g	-9.17131
▁jedha	-9.17235
▁kudhan	-9.17251
▁ogeessa	-9.17295
rii	-9.17365
▁himi	-9.17369
▁bilbil	-9.17405
dhu	-9.1753
▁addaan	-9.1755
▁አለን።	-9.17599
▁ካል	-9.17784
▁dheeraaf	-9.17867
▁ቀለም	-9.17888
▁በል	-9.17987
▁duubatti	-9.18023
▁ድ	-9.18126
ጡ።	-9.18129
▁በረዶ	-9.18283
▁ቅር	-9.18369
▁boorsaa	-9.18482
▁iccitii	-9.18482
▁መውጣት	-9.18482
▁አመሰግናለሁ።	-9.18483
▁አስተማሪ	-9.1849
▁አንችልም።	-9.18531
▁መመለስ	-9.1865
▁ቃላት	-9.18675
ኳ	-9.18858
▁seera	-9.18869
▁hammam	-9.19042
▁jiruu	-9.19043
▁fudhata	-9.19063
▁iddoo	-9.19081
▁ዶላር	-9.19081
▁ይመ	-9.19282
▁dubbisuu	-9.19287
or	-9.19433
▁እንዲያ	-9.19514
ጠረ	-9.19574
▁biiraa	-9.19684
▁ካንተ	-9.19685
▁ስላ	-9.19693
▁kanuma	-9.19749
ረድ	-9.19772
መን	-9.1978
▁argatte	-9.19791
▁ቢራ	-9.19852
▁ha	-9.20189
▁ነጻ	-9.20283
▁deemtu	-9.2029
▁faayidaa	-9.2029
▁ውሳኔ	-9.2029
▁መሆኑን	-9.20291
▁ሄደ።	-9.20292
▁gabaabaa	-9.20292
▁ነህ	-9.2037
ህ።	-9.20386
▁amanu	-9.20495
▁በር	-9.20517
ችንን	-9.20638
lee	-9.20818
oota	-9.20845
▁maqaan	-9.20879
▁dubbatu	-9.20899
▁aannan	-9.209
▁mala	-9.20945
us	-9.21017
ጠቀም	-9.21063
▁bahuu	-9.21184
me	-9.21345
▁ilma	-9.21359
▁ilkaan	-9.21513
▁ጠቃሚ	-9.21513
▁dhaaba	-9.21596
▁በእኔ	-9.21598
▁soba	-9.21623
▁poolisiin	-9.21929
▁ቤተ	-9.22129
▁ጀመረ።	-9.2213
▁ብት	-9.22214
▁rakkisaadha	-9.22329
▁qo	-9.22334
▁jiraatu	-9.22339
▁sanaaf	-9.22556
▁arguuf	-9.22581
ዘጋ	-9.22706
▁doktora	-9.22714
ረው	-9.22732
▁shaayii	-9.22751
▁fooyya	-9.22751
▁ምርጫ	-9.22751
▁ኖሮ	-9.22752
ኖች	-9.22822
▁murtoo	-9.22867
ባት	-9.22893
▁ግራ	-9.22917
▁dhukkuba	-9.23156
ጻ	-9.23259
▁ያስባሉ፧	-9.23376
j	-9.23436
▁ይችላል፧	-9.23439
▁garaa	-9.23572
▁ingiliffaa	-9.23648
▁እነዚህን	-9.23676
anne	-9.23845
ደርስ	-9.23944
▁awustiraaliyaa	-9.24005
▁kudha	-9.2402
▁dubbateera	-9.24031
▁dhabuu	-9.24204
▁አሉ፧	-9.24235
▁ወይን	-9.24389
▁ሊያ	-9.24465
▁taate	-9.24467
▁jijjiir	-9.24577
▁abaaboo	-9.24638
▁lammaffaa	-9.24638
▁wantoota	-9.24638
▁ለምንድነው	-9.24638
▁መጠን	-9.24651
▁qoricha	-9.2466
▁yaaduu	-9.24742
ልህ	-9.24756
ሮች	-9.24815
▁caalu	-9.24816
▁barbaadduu	-9.2492
▁hawwii	-9.25275
▁እባኮትን	-9.25275
▁ደደብ	-9.25275
▁gootu	-9.25293
▁ይቀ	-9.25294
achaa	-9.25331
▁rukut	-9.25361
▁ተመ	-9.25682
▁ነገሮችን	-9.25864
▁እመርጣለሁ።	-9.25916
▁fakkaatta	-9.25917
▁filat	-9.25964
▁ጨ	-9.26103
at	-9.26187
▁የምን	-9.26307
▁ለአ	-9.26368
▁bilbilaa	-9.26478
▁ከማርያም	-9.26561
▁kootiin	-9.26567
▁daandii	-9.26602
▁ልብ	-9.26815
▁እንደዛ	-9.26875
ኛው	-9.26894
▁daldalaa	-9.26983
▁argama	-9.2718
▁ቦርሳ	-9.27186
on	-9.27243
▁walgahii	-9.27254
▁toomiif	-9.27257
▁mur	-9.27294
▁jireenyaa	-9.27477
erra	-9.27643
▁bal	-9.27756
▁kam	-9.27791
▁እድሜ	-9.2781
▁gammada	-9.27864
▁ንጹህ	-9.27864
▁ጠንካራ	-9.27864
▁አየሁ።	-9.2788
▁aar	-9.27946
▁ጎ	-9.27983
▁ያለውን	-9.28027
▁አመ	-9.28131
▁ጫማ	-9.2819
ለት	-9.28199
onni	-9.28287
re	-9.28463
ፌ	-9.28522
▁መስማት	-9.28522
▁ወቅት	-9.28523
▁ወጣ።	-9.28532
▁ነዎት።	-9.28597
▁dhaloota	-9.28789
▁foon	-9.28817
▁ja	-9.28982
▁hojjete	-9.29154
ፒ	-9.29184
▁አካባቢ	-9.29184
▁አትችልም።	-9.29248
▁እራት	-9.29311
▁ግድ	-9.29375
ቆይ	-9.29414
▁ciree	-9.29424
▁jaallatta	-9.29524
▁f	-9.29662
umsa	-9.29663
▁gaafadhe	-9.29758
▁amala	-9.29852
▁መተኛት	-9.29852
▁ወንድሜ	-9.29862
ተር	-9.30002
▁argee	-9.30473
▁dallaa	-9.30522
▁humna	-9.30522
▁መውሰድ	-9.30522
▁በእውነቱ	-9.30522
▁ፍጹም	-9.30522
▁dubartii	-9.30522
▁ከእኛ	-9.30522
▁hafuura	-9.30529
▁አለብኝ፧	-9.30547
ቹን	-9.30565
▁seene	-9.30606
▁keetii	-9.30843
▁barbaadaa	-9.30952
ጄ	-9.31109
▁ofirraa	-9.31198
▁አይደሉም።	-9.31198
amee	-9.31243
▁ስጠኝ።	-9.31265
▁garee	-9.31272
▁namaa	-9.31342
ummaa	-9.31383
▁deemte	-9.31824
▁lakkaa	-9.31878
▁አደገኛ	-9.31878
▁እንችላለን።	-9.31878
▁ወድጄዋለሁ።	-9.31878
▁ባቡሩ	-9.31878
▁ወጣት	-9.31887
▁ምሳ	-9.32066
▁እንድታ	-9.32122
▁ስጋ	-9.32147
aman	-9.32164
▁qulqulluu	-9.32168
▁k	-9.32205
▁beela	-9.32241
ላችሁ	-9.32383
ichi	-9.32416
▁እየሰራ	-9.32476
▁hiika	-9.32496
▁waraqaa	-9.32563
▁harmeen	-9.32564
▁ኳስ	-9.32565
▁anaaf	-9.32606
▁argu	-9.32783
st	-9.32884
▁ተማሪ	-9.33048
▁bul	-9.33097
▁bareedduu	-9.33125
▁deemta	-9.33189
9	-9.33253
▁maallaqni	-9.33253
▁ከዚያ	-9.33253
▁የተለየ	-9.33253
▁ilaale	-9.33257
▁gahe	-9.33298
▁ከፍተኛ	-9.33298
▁ari	-9.33394
ri	-9.33452
itti	-9.33595
▁መቼም	-9.33694
▁hundaaf	-9.33894
▁hojjedhe	-9.33919
▁እንደዚያ	-9.33947
▁እንደማይ	-9.34006
▁ማቆም	-9.34038
▁dhuguu	-9.34041
▁ስልክ	-9.34044
ላት	-9.34073
▁እንዳይ	-9.34126
▁gargaaru	-9.34188
▁yaa	-9.34405
ሰር	-9.34408
▁kennite	-9.34597
▁jireenyi	-9.34646
▁ሀብታም	-9.34646
▁tolu	-9.34655
▁abjuu	-9.34739
lo	-9.34841
▁ጣቢያው	-9.34861
▁hojjechuuf	-9.35248
▁ከአንድ	-9.35352
eedha	-9.35382
▁beekamaadha	-9.35429
▁ሁለቱም	-9.35447
▁እንደተ	-9.35459
▁gurgur	-9.35557
መር	-9.35809
▁ergaa	-9.35835
▁obboleessi	-9.3606
▁urgaa	-9.3606
▁ፈጽሞ	-9.3606
▁ለመሄድ	-9.36221
▁dabarsuu	-9.36245
ቀር	-9.36282
▁እር	-9.36391
ዘን	-9.36669
7	-9.36774
▁እጠላለሁ።	-9.36774
▁ጀምሮ	-9.36774
▁በአለም	-9.36775
▁ዳርቻ	-9.36783
▁yaale	-9.36844
▁ማመን	-9.36861
▁dhibu	-9.36872
▁jirtuu	-9.37055
▁duuba	-9.3718
▁dhiiraa	-9.37298
▁kuf	-9.37421
▁hayyama	-9.37434
▁dubbate	-9.37464
▁ibsaa	-9.37469
▁soddoma	-9.37494
▁ፍጥነት	-9.37494
▁ህመም	-9.37494
▁የተወሰነ	-9.37494
▁ምክር	-9.37494
▁ሻይ	-9.37496
▁biqiltuu	-9.37498
▁መጠቀም	-9.37633
ታለች።	-9.3774
ጦ	-9.38215
▁dandeettii	-9.38218
▁gowwummaa	-9.38218
▁paarkii	-9.38218
▁ለመርዳት	-9.38218
▁ፈቃደኛ	-9.38218
ሰው	-9.38407
▁በሩ	-9.38485
ባል	-9.38539
▁ተጠ	-9.38577
▁argachuuf	-9.38607
ህም።	-9.38815
▁ከእሱ	-9.38835
ጂ	-9.38902
▁hojjedha	-9.3895
ነዳ	-9.39035
▁hubachuu	-9.39073
▁ለመሆን	-9.39077
▁ደግ	-9.39127
ችው	-9.39183
▁eega	-9.39206
ለን	-9.39339
ራል።	-9.39364
▁jijjiirama	-9.39365
▁fa	-9.39573
▁miilaa	-9.39646
▁ingilizii	-9.39683
▁bite	-9.39691
▁መጨረሻ	-9.39768
▁እርስ	-9.39849
▁ተማሪዎች	-9.39896
30	-9.3992
▁መጣ።	-9.39942
▁ma	-9.39976
▁አገ	-9.40019
ወት	-9.40231
ጆ	-9.40244
▁dhugaadha	-9.4026
▁አየ	-9.40384
▁waggoota	-9.40393
▁መስጠት	-9.40425
▁yaaluun	-9.40426
ጠይቅ	-9.40427
▁banaa	-9.40491
▁መስ	-9.40523
▁እንደሚሆን	-9.40541
▁gurbaa	-9.40559
ረብ	-9.40667
▁ilaaluun	-9.40669
▁ተወ	-9.40711
▁salphaatti	-9.40824
▁kitaabaa	-9.40882
ቴን	-9.4096
▁barreessaa	-9.41115
▁baaburri	-9.4117
▁jirre	-9.4117
▁ከእንግዲህ	-9.4117
▁ብለህ	-9.41172
▁ዘፈን	-9.41172
▁ኬክ	-9.41173
ርግ	-9.41399
▁isheef	-9.414
▁bitachuuf	-9.41491
ቂ	-9.41625
▁ነው፣	-9.41707
lli	-9.41736
▁ሀ	-9.41769
▁siin	-9.41774
▁liqii	-9.41922
▁odeeffannoo	-9.41922
፡	-9.41922
▁namichi	-9.41922
▁ሞቃት	-9.41922
▁ነገረኝ።	-9.41924
▁የዚህ	-9.41928
▁ማንንም	-9.41937
▁adii	-9.41954
ጠብቅ	-9.42019
di	-9.42086
▁እኔን	-9.42107
ድረ	-9.42171
ng	-9.42432
▁dirqama	-9.42462
aatiin	-9.42537
▁yaadaa	-9.42653
▁wiixata	-9.4268
▁መረጃ	-9.4268
▁ይሰራል።	-9.42686
▁ulfaataa	-9.42738
▁dabarsi	-9.42825
▁kaan	-9.42926
▁mari	-9.43105
▁gaariidha	-9.43157
▁tureef	-9.43312
▁bareedaa	-9.43316
▁quba	-9.43443
▁አስቂኝ	-9.43443
▁ክፍት	-9.43444
▁ወደዚህ	-9.43444
ረት	-9.43527
ጠላ	-9.43538
ሰጥ	-9.4358
ሶች	-9.43679
▁laga	-9.43775
▁tasumaa	-9.43777
▁የምፈልገው	-9.43832
▁gargaaruuf	-9.43893
▁ራሴን	-9.43895
▁አለም	-9.43924
▁የማን	-9.43937
toonni	-9.44039
▁ሳይ	-9.44048
▁harki	-9.44146
ክስ	-9.44155
▁barreesse	-9.4419
▁dhihoo	-9.44212
▁hanqaaquu	-9.44212
▁lakkoofsa	-9.44212
▁ዶክተር	-9.44212
▁አይመስልም።	-9.44213
▁መርዳት	-9.44213
▁gosa	-9.44226
▁ትችላለህ።	-9.44252
▁አስተያየት	-9.44277
▁ተደ	-9.44439
▁barreessi	-9.44636
▁ተሳ	-9.44647
ሲ	-9.44782
▁ክፍሉ	-9.44949
▁keessanii	-9.4497
▁አምስት	-9.44988
▁gurraacha	-9.44992
▁qorri	-9.45002
▁toomitti	-9.45008
▁ከሆነ	-9.45048
ሩን	-9.45056
▁መታ	-9.45144
ቸውን	-9.45155
if	-9.45204
▁ሆነ።	-9.45258
▁isaanis	-9.45274
▁goota	-9.45309
▁hiik	-9.45501
ራቸው	-9.45706
▁balali	-9.45746
atte	-9.45747
▁fakkeess	-9.45769
▁affeerraa	-9.45769
▁deemsa	-9.45769
▁በህይወት	-9.45769
▁እፈራለሁ።	-9.45769
▁aniifi	-9.45769
▁tarree	-9.4577
▁አብረን	-9.4577
▁ልጁ	-9.4578
▁ገባ።	-9.45786
▁አስር	-9.45934
ከር	-9.4597
▁ilaalu	-9.46041
▁አይደለም	-9.46084
▁dhufaa	-9.46162
ደን	-9.46184
▁dogoggoraa	-9.46223
▁sodaadha	-9.46343
▁jaalala	-9.46376
▁xuuxuu	-9.46428
▁ijaar	-9.46493
▁በሰአቱ	-9.46556
▁እንግሊዘኛ	-9.46556
▁እገምታለሁ።	-9.46556
▁dhiise	-9.46628
▁dhiisee	-9.46644
ሄ	-9.46768
▁hojiitti	-9.46873
▁አገር	-9.47006
▁jechootaa	-9.47062
▁ሰር	-9.471
ጊ	-9.47347
▁kitaabicha	-9.4735
▁ባቡር	-9.4735
▁ወንዶች	-9.4735
▁የለንም።	-9.47351
▁himte	-9.47384
it	-9.47416
▁buus	-9.47497
ለች	-9.47505
▁daraaraa	-9.47537
0	-9.47728
▁ና	-9.47815
▁ተገ	-9.47959
▁ተሰ	-9.48138
ዜ	-9.48148
▁duwwaa	-9.4815
▁ለእርስዎ	-9.4815
▁አጠገብ	-9.4815
▁ይወዳሉ፧	-9.4815
▁ፖም	-9.4815
▁ታዋቂ	-9.4815
▁ሜሪ	-9.48151
▁ከአንተ	-9.48152
▁taphachaa	-9.48172
▁fedhe	-9.48241
▁godheera	-9.48245
▁eessatti	-9.48273
▁argate	-9.48339
ነገር	-9.48447
▁keekii	-9.48478
chaa	-9.48583
▁hidhaa	-9.48722
ሳል	-9.48753
ed	-9.48764
▁rukute	-9.48772
▁መሞከር	-9.48956
▁ወተት	-9.48957
▁ጥቅም	-9.48959
▁በአንተ	-9.48959
▁ofitti	-9.49037
▁irraan	-9.49068
▁ነጭ	-9.49072
▁hundaa	-9.49156
▁ibsuu	-9.49221
aadha	-9.4933
▁dhaabuu	-9.49363
መድ	-9.4941
ገኙ	-9.49428
▁uum	-9.49449
▁2	-9.49528
ባቸው	-9.49548
▁kufe	-9.49583
ዳን	-9.49665
▁gargaara	-9.49666
ሯ	-9.4974
▁murteesse	-9.49749
▁cirracha	-9.49769
▁dursee	-9.4977
▁ይልቅ	-9.49774
▁hojjettu	-9.49787
▁ንገረኝ።	-9.49808
▁እኔም	-9.49838
▁ባዶ	-9.49839
▁አንተን	-9.50101
▁nyaachuuf	-9.50172
▁hamaadha	-9.50446
▁hoo	-9.50464
▁hordof	-9.5048
▁mudaa	-9.50589
▁qaruuraa	-9.50589
▁ulfaatina	-9.50589
▁ለረጅም	-9.50589
▁መጠየቅ	-9.50589
▁ኮፍያ	-9.50589
▁ለመስራት	-9.50589
▁መጠጣት	-9.5059
▁ማሰብ	-9.5059
▁ይገባል።	-9.50609
▁በጥሩ	-9.50661
ing	-9.50661
▁naanna	-9.50782
▁umurii	-9.50807
▁dukkanaa	-9.50887
▁የሰ	-9.50987
▁እንደማ	-9.50994
▁ብቻውን	-9.51113
▁dhuunfaa	-9.51134
▁የመጀመሪያ	-9.51267
▁barbaanna	-9.51416
▁hospitaala	-9.51416
▁kaardii	-9.51416
▁qawwee	-9.51416
▁sababni	-9.51416
▁አልገባኝም።	-9.51416
▁himne	-9.5142
▁ለማለት	-9.51439
▁obsuu	-9.51532
ደረሰ	-9.51586
▁ሆስፒታል	-9.51631
▁kennu	-9.5179
▁taphata	-9.51796
▁ganna	-9.51899
annaa	-9.52133
▁ሲያ	-9.52201
▁dammaq	-9.52216
▁ykn	-9.52249
▁ትርጉም	-9.52249
▁dhufne	-9.52249
▁ህንጻ	-9.5225
▁fufe	-9.52258
▁balaan	-9.52403
▁እንዳለበት	-9.52429
▁ነበር፣	-9.52491
ota	-9.52545
li	-9.5264
▁uffatte	-9.52644
▁የሚያስ	-9.5269
ዞ	-9.52769
ሁት።	-9.52783
▁haaraan	-9.52853
ቦች	-9.52857
▁dhiqa	-9.52921
▁qabachuu	-9.52937
▁yoon	-9.53013
▁hayyam	-9.53039
bii	-9.53086
▁gaaddisa	-9.53089
▁መንዳት	-9.53089
▁ሰአታት	-9.53089
▁ነበረው።	-9.53089
▁ዛፍ	-9.53093
▁መነጋገር	-9.53171
▁tole	-9.53209
▁harkaa	-9.53281
▁ያንተ	-9.53369
▁gatiin	-9.53408
▁የምፈልገው።	-9.5347
▁ጨዋታ	-9.53559
ቀመጥ	-9.5375
▁ከማ	-9.53766
▁bitadhe	-9.53901
▁magaalattii	-9.53937
▁ፍቅር	-9.53937
▁እንደምችል	-9.53937
▁barattoonni	-9.53939
▁በፈረንሳይኛ	-9.5394
▁ይሄዳል።	-9.5394
▁cabse	-9.53966
▁dhaabbata	-9.53978
▁fudhadha	-9.54031
▁አላት።	-9.54139
▁አብ	-9.54281
▁re	-9.54469
ሾ	-9.54791
▁ጥቁር	-9.54792
▁m	-9.54854
▁gaafatte	-9.54887
▁ወጥ	-9.55023
▁hiriyaa	-9.55049
▁መተው	-9.55081
▁argamu	-9.55232
▁biroo	-9.55653
▁deemna	-9.55653
▁ለመግዛት	-9.55653
▁በቶም	-9.55657
▁አቁም።	-9.55762
▁roobaa	-9.55886
▁waanuma	-9.55896
ያውቁ	-9.56065
ሎች	-9.56144
▁መር	-9.56296
▁ተቀ	-9.56343
▁guut	-9.564
ረግ	-9.5646
▁ውሻው	-9.56499
▁liqeessuu	-9.56523
▁ልጄ	-9.56613
▁hirribaa	-9.56632
▁አየር	-9.56733
▁cufam	-9.56816
አለሁ።	-9.56858
ላል።	-9.56926
ዶች	-9.5732
▁ijoollummaa	-9.574
▁ነበረኝ።	-9.574
▁አላስታውስም።	-9.574
▁እድለኛ	-9.574
▁የማውቀው	-9.574
▁ጸጉር	-9.574
▁ህልም	-9.574
▁እህቴ	-9.57404
▁ነበረች።	-9.57448
ሄደ	-9.57456
ጣል	-9.57517
aawaa	-9.57577
▁bade	-9.57641
▁ተነ	-9.57654
▁ስራዬን	-9.57684
▁rakkisaa	-9.57756
▁dandeenyaa	-9.57997
▁አበ	-9.58005
▁isaas	-9.58082
▁galuu	-9.58111
▁argachuun	-9.58194
▁ያል	-9.58225
▁deeskii	-9.58285
▁dubbanne	-9.58285
▁ያውቃሉ፧	-9.58285
▁bilbilli	-9.58296
▁argadheera	-9.58353
ቶቹ	-9.58489
atee	-9.58763
▁addaa	-9.58842
▁እንደሚያ	-9.58881
ረም	-9.58944
▁sh	-9.58952
icha	-9.59128
▁nyaanne	-9.59178
▁saroonni	-9.59178
▁በእግር	-9.59178
▁የሴት	-9.59179
▁ጊዜው	-9.59195
▁gargaaraa	-9.59292
ከው	-9.59325
▁taphat	-9.59377
▁hogganaa	-9.59467
▁poolisii	-9.59471
▁bilbiluu	-9.59927
▁ጋ	-9.60067
▁nageenya	-9.60079
▁ለሶስት	-9.60079
▁ባለቤቴ	-9.60079
▁ምርጥ	-9.60079
▁መጽሀፉን	-9.60082
▁darbee	-9.60145
▁ልጆቹ	-9.60194
▁argeera	-9.60217
edha	-9.60257
▁meeshaalee	-9.60392
rri	-9.6057
▁seenuu	-9.60692
▁dhangala	-9.6096
▁qabbanaa	-9.60985
▁daftee	-9.60988
▁fudhadhu	-9.60988
▁መልካም	-9.60988
▁ወላጆቼ	-9.60988
▁ሄጄ	-9.60988
▁beekna	-9.60996
▁ያለብን	-9.61
▁አሰብኩ።	-9.61015
▁ብልህ	-9.61032
▁ገዛሁ።	-9.61063
▁መጻፍ	-9.6109
▁obboleettiin	-9.61182
▁መጻህፍት	-9.61245
▁reefu	-9.61465
ፓ	-9.61851
▁maxxan	-9.61895
▁ማንኛውንም	-9.61905
▁ትኩረት	-9.61905
▁hoteela	-9.61906
▁ለውጥ	-9.61914
▁hojjechuun	-9.61936
▁ለመናገር	-9.62011
▁dhufeera	-9.62025
▁dabal	-9.62048
▁እጅ	-9.62098
ሄዱ	-9.62108
▁qofatu	-9.62175
▁teenisii	-9.62218
▁w	-9.62223
ኙ	-9.62292
▁ይሄ	-9.62306
▁yaadee	-9.62407
▁qilleensa	-9.62591
▁ፍ	-9.6269
mne	-9.62726
ጌ	-9.62819
▁agarsiisa	-9.62831
▁መዝገበ	-9.62831
▁ቴኒስ	-9.62831
▁ከሶስት	-9.62831
▁ilmi	-9.62831
▁ካሜራ	-9.62831
▁ከየት	-9.62835
▁እንዳልሆነ	-9.62837
▁dabarseera	-9.62841
▁አላቸው።	-9.62877
▁di	-9.62895
▁bareedduudha	-9.63003
▁ጠረጴዛው	-9.6301
▁taatee	-9.63044
ሙዋ	-9.63068
ኩኝ።	-9.63081
lii	-9.63127
▁ዋና	-9.63253
▁በመኪና	-9.63394
ወን	-9.63435
▁tur	-9.63588
▁hidham	-9.63611
▁bosona	-9.63766
▁muuxannoo	-9.63766
▁qabeenya	-9.63766
▁ብርጭቆ	-9.63766
▁ሌሎች	-9.63766
▁roobe	-9.63766
▁ማነው፧	-9.63766
▁ባህሪ	-9.63766
▁dachaa	-9.63789
▁መኪናው	-9.63995
▁dubbis	-9.64212
▁dhaba	-9.64265
▁ሰዎችን	-9.64372
▁dubbachuuf	-9.64483
▁ፈተና	-9.64605
▁meeqatti	-9.64612
▁yaaddoo	-9.64709
▁በቀላሉ	-9.64709
▁utaal	-9.64709
▁daree	-9.6471
▁ቤተሰብ	-9.6471
▁ከቤት	-9.64711
▁ቤቴ	-9.64717
ፈልጋ	-9.64725
▁ollaa	-9.64738
▁ብስክሌት	-9.64754
ሰረ	-9.64819
▁xiqqaate	-9.64833
▁ለማንም	-9.64833
▁fe	-9.64976
▁rafe	-9.64984
▁aduu	-9.65053
▁hangam	-9.65199
▁eegu	-9.65215
▁bahu	-9.65223
▁barbaachisaadha	-9.65253
▁ibidda	-9.65267
▁ሰጠ	-9.65505
ph	-9.65563
▁qabuu	-9.65604
▁ቢሮ	-9.65621
▁dubbadhu	-9.65662
▁sanduuqa	-9.65662
▁ክረምት	-9.65662
▁cuf	-9.65707
ቸዋል።	-9.65739
▁የትኛው	-9.65896
ውም።	-9.66027
▁isaatti	-9.66063
isuu	-9.66186
ዱ።	-9.662
▁gama	-9.66362
mi	-9.66435
ዎቹን	-9.66482
▁ጀርባ	-9.66486
▁eege	-9.66611
▁dargaggeessa	-9.66623
▁ቁልፍ	-9.66623
▁እንችላለን፧	-9.66623
▁piyaanoo	-9.66623
▁qaala	-9.66623
▁እግር	-9.66626
▁dagatinaa	-9.6664
▁machaa	-9.66646
▁barachaa	-9.6667
▁አር	-9.66682
ችኝ።	-9.66735
▁ወይስ	-9.66768
▁baaf	-9.66974
niif	-9.66998
ታል፧	-9.67003
▁fiduu	-9.67151
▁bilbile	-9.67249
▁ጃፓን	-9.67562
▁j	-9.67563
mm	-9.67564
▁haqa	-9.67594
▁ተወዳጅ	-9.67594
▁ትመስላለህ።	-9.67594
▁እውነተኛ	-9.67594
▁ግንኙነት	-9.67594
▁qaana	-9.67595
▁daakuu	-9.67599
▁jiraadha	-9.6761
▁ወዲያውኑ	-9.67611
▁አዝናለሁ።	-9.67626
▁ቁርስ	-9.67674
▁ስብሰባው	-9.67676
▁yaadachuu	-9.67765
▁qabadheen	-9.67782
▁yaadne	-9.6791
▁gale	-9.6798
▁አጣ	-9.68095
inni	-9.6829
es	-9.68397
▁t	-9.68428
adhe	-9.68444
ሺ	-9.68572
ላይ	-9.68596
▁yaalu	-9.68602
▁ይለኛል።	-9.68632
ll	-9.68635
ጠብ	-9.6865
▁ችግሩ	-9.68746
▁ልዩ	-9.68747
▁dadhab	-9.68804
ደግ	-9.68871
▁sirra	-9.68904
▁መኪናውን	-9.69041
▁ibsa	-9.69109
ትም።	-9.69212
▁deebiin	-9.6925
▁raa	-9.69353
▁የትኛውን	-9.69416
ራለሁ።	-9.69557
▁dhiib	-9.6956
▁akkamittan	-9.69565
▁dubbatte	-9.69565
▁konsartii	-9.69565
▁nyaanni	-9.69565
▁raadiyoo	-9.69565
▁በጃፓን	-9.69565
▁baankii	-9.69565
▁konkolaachisaa	-9.69568
▁እናመሰግናለን።	-9.69591
▁ልነግርህ	-9.69591
▁cinaa	-9.69635
▁እነሱ	-9.69652
የው	-9.69655
▁hojjetame	-9.69728
▁mijataa	-9.69781
▁ባል	-9.69853
▁በቀር	-9.69902
▁dhukkubsa	-9.69915
▁gamoo	-9.69952
▁ሆነ	-9.70207
▁fagoo	-9.70393
▁garagal	-9.7055
▁shamarran	-9.70565
▁sochii	-9.70565
▁ፒያኖ	-9.70565
▁መግባት	-9.70565
▁አጭር	-9.70566
▁fagaat	-9.70567
▁ምንድነው፧	-9.70584
▁እሆናለሁ።	-9.70605
▁maraat	-9.70643
▁gidduu	-9.70656
▁aanutti	-9.70727
▁yaala	-9.70735
▁10	-9.70845
ያዝ	-9.70896
▁dhiyoo	-9.7141
ሳም	-9.71489
▁poostaa	-9.71538
eessa	-9.7157
▁አሜሪካ	-9.71573
▁afur	-9.71574
▁daabboo	-9.71575
▁injifachuu	-9.71575
▁taaksii	-9.71575
▁አምናለሁ።	-9.71575
▁ድመቱዋ	-9.71575
▁dhork	-9.71575
▁አይፈልግም።	-9.71575
▁ይመጣል።	-9.71575
▁ቢያንስ	-9.71575
▁መጠጥ	-9.71577
▁እይታ	-9.7158
በትን	-9.71678
▁ajjees	-9.71748
▁ራሱን	-9.71754
▁እነዚያ	-9.71774
▁ተራ	-9.71891
annu	-9.7204
▁mar	-9.72066
ታይ	-9.7209
ሉን	-9.72265
▁jijjiiruu	-9.7228
▁ጥያቄዎችን	-9.72294
▁qabuuf	-9.72297
ፍር	-9.72334
attee	-9.72467
▁kaffaluu	-9.7256
▁aanu	-9.72563
▁balballi	-9.72595
▁qabeessa	-9.72595
▁sagantaa	-9.72595
▁ሴቶች	-9.72597
▁ነዎት፧	-9.72637
▁hojjedheera	-9.72639
▁እንስሳት	-9.72812
▁ይቅርታ፣	-9.72854
udha	-9.72865
ወደው	-9.72874
▁raf	-9.72878
▁አለህ።	-9.72883
v	-9.72962
▁ያሉ	-9.72985
▁አልጋ	-9.73028
▁godhaa	-9.7303
annoo	-9.73049
▁rafuu	-9.73072
በው	-9.73114
▁ይሆናል	-9.73152
▁baasii	-9.73299
▁dubbachuun	-9.73315
ኑን	-9.73332
▁tokkotu	-9.73417
▁ቤቱን	-9.73461
ገቡ	-9.73473
▁hidh	-9.73563
▁suuqii	-9.73626
▁wantoonni	-9.73626
▁ለሁሉም	-9.73626
▁መቁዋቁዋም	-9.73626
▁አልነበረኝም።	-9.73626
▁ቅሬታ	-9.73626
▁የእግር	-9.73626
▁እንደሆንክ	-9.73627
▁እንደሚችል	-9.73627
000	-9.73635
▁እንጂ	-9.7369
▁qophii	-9.73827
▁dadhabe	-9.73831
ውስ	-9.73836
leen	-9.73982
▁deemi	-9.7405
▁tilmaam	-9.74077
▁አዳ	-9.7408
▁መጣ	-9.74223
▁hawwata	-9.7423
▁አገኘ	-9.74291
▁waraana	-9.74313
▁ስለሱ	-9.74323
▁የምታ	-9.74408
▁ጠረጴዛ	-9.74467
▁caala	-9.74482
ሱን	-9.74484
ስተዋ	-9.74509
ጋግ	-9.74532
▁sodaa	-9.74576
ጹ	-9.74668
▁19	-9.74668
▁saanduqa	-9.74668
▁tikeetii	-9.74668
▁torbee	-9.74668
▁አድርጓል።	-9.74668
▁ይናገራል።	-9.74668
▁ጣፋጭ	-9.74668
▁fayyadama	-9.7467
▁የድሮ	-9.7467
▁dhiisi	-9.74671
▁አገኘሁ።	-9.74685
▁dagadheera	-9.74687
▁ራስ	-9.74706
▁አይቻለሁ።	-9.74883
ለቅ	-9.74974
▁barsiisaan	-9.7519
▁bahee	-9.75249
taniittu	-9.75692
▁intalti	-9.7572
▁karoorri	-9.7572
▁አለባቸው።	-9.75721
▁ተሰማኝ።	-9.75721
▁ድመት	-9.75721
▁argadhu	-9.7574
▁ጠበቃ	-9.75743
ko	-9.75765
▁D	-9.75768
▁ማጨስ	-9.75962
▁አዲሱ	-9.75964
▁gahuu	-9.76125
▁gootan	-9.76134
▁ቆይ	-9.76207
ለቀ	-9.76316
▁gudd	-9.7636
▁haroo	-9.76386
▁rooba	-9.76498
isaa	-9.76631
▁ዙሪያ	-9.76678
▁samii	-9.76722
▁በእሱ	-9.76742
ጻፍ	-9.76769
▁kompiitara	-9.76784
▁lammata	-9.76784
▁mirkaneeffat	-9.76784
▁ማረጋገጥ	-9.76784
▁ከእነዚህ	-9.76784
▁መሳሪያ	-9.76784
▁barattoota	-9.7679
▁yaadadha	-9.76823
▁የእኛ	-9.7685
▁gaara	-9.76851
ቂያ	-9.76873
▁ሞኝ	-9.7693
▁dinqisiifadha	-9.76975
▁በቃ	-9.76979
to	-9.7699
▁guutam	-9.77182
▁akkanaa	-9.77221
▁umriin	-9.77234
▁ኢ	-9.77266
▁ለእ	-9.77316
▁gogaa	-9.77371
ic	-9.77571
በሩ	-9.77655
ሸነፍ	-9.77772
▁qood	-9.77852
▁አውስትራሊያ	-9.77859
▁አያስፈልግም።	-9.77859
▁እያሰብኩ	-9.77859
▁የማደርገው	-9.77859
▁ያስፈልግዎታል።	-9.77859
▁ሰምቻለሁ።	-9.7786
▁በበረዶ	-9.7786
▁sirritti	-9.7786
▁እስኪ	-9.7786
▁ለፊት	-9.77861
▁baruu	-9.77934
5	-9.77949
▁bo	-9.77965
▁bareedaadha	-9.7804
▁አልፎ	-9.7812
▁xuux	-9.78193
▁እንድን	-9.7839
▁argitee	-9.78558
▁fuuldura	-9.78659
ኛለህ፧	-9.7876
neerra	-9.78792
ela	-9.78811
▁kabaja	-9.78821
▁dhabuun	-9.78906
▁fakkii	-9.78918
baa	-9.78944
▁jaallatti	-9.78946
▁qabxii	-9.78946
▁መክፈል	-9.78946
▁አያስፈልገኝም።	-9.78946
▁ውጪ	-9.78946
▁የለብህም።	-9.78946
▁ጊታር	-9.78946
▁እንሂድ።	-9.79059
▁ሮ	-9.79064
▁dadhabeera	-9.79128
mii	-9.79176
▁sirbuu	-9.79373
▁qorqorroo	-9.79431
ነቱ	-9.79451
▁baatee	-9.79506
ሰሩ	-9.79626
▁dubbisaa	-9.7967
▁roobu	-9.79735
▁ይከ	-9.79735
▁ችግሩን	-9.79853
▁ይጠ	-9.79863
▁carraan	-9.8001
aatti	-9.80012
▁gaazexaa	-9.80045
▁tasgabbaa	-9.80045
▁ሀኪም	-9.80045
▁ወንበር	-9.80046
▁ታላቅ	-9.80046
▁እንግሊዝኛ	-9.80048
▁እችል	-9.80049
▁rakkina	-9.80064
▁afeer	-9.80068
▁እኔና	-9.80075
▁ቅዳሜና	-9.80107
▁uffatee	-9.8018
▁ያሳ	-9.80315
ሰላ	-9.80327
▁አለመ	-9.80376
▁haasaa	-9.80412
▁gadhiis	-9.80482
▁dhukkubbii	-9.80548
▁nyaatu	-9.8057
▁gaaf	-9.80625
inaan	-9.80626
▁deebisee	-9.80654
▁himu	-9.80698
ቁ።	-9.80721
ነሱ	-9.80807
▁li	-9.80829
▁የምር	-9.80921
▁dhiiseen	-9.8093
▁keeti	-9.80949
▁gub	-9.81014
▁ዜና	-9.81053
▁tarkaanfii	-9.81156
▁መስኮቱን	-9.81156
▁አድራሻ	-9.81156
▁የተሳሳተ	-9.81157
▁bifa	-9.81157
▁ሰላሳ	-9.81158
▁ሳጥን	-9.8116
▁yaadannoo	-9.81161
▁ሰላም	-9.81164
▁መድሃኒት	-9.81239
▁የመጀመሪያው	-9.81357
jii	-9.81365
▁ሚ	-9.8137
▁badii	-9.81488
▁darbuu	-9.81504
▁ወንድ	-9.81511
▁qabuudha	-9.81542
▁የመጨረሻው	-9.81675
ቀበል	-9.81714
▁ፓርቲ	-9.81756
▁daldala	-9.81859
▁seenaan	-9.81887
▁kaasee	-9.81944
▁ኦ	-9.82032
▁naan	-9.82071
ከኝ	-9.82094
▁hiriyoonni	-9.8228
▁nyaadha	-9.8228
▁በእርግጠኝነት	-9.8228
▁እያንዳንዱ	-9.8228
▁ቲቪ	-9.8228
▁እንደሆንኩ	-9.8228
▁haal	-9.82286
▁አገኘሁት።	-9.82288
▁boostonitti	-9.82302
▁deebisuu	-9.82313
▁ብሎኛል።	-9.8238
▁መልእክት	-9.82394
▁አውቶቡሱ	-9.82397
▁warraa	-9.82454
▁fiiguu	-9.82589
ve	-9.82609
▁jechoota	-9.8269
▁eegal	-9.8269
▁kanarra	-9.82759
ደሰት	-9.82947
▁jabeessa	-9.83044
▁xumura	-9.8335
▁dhageenye	-9.83416
▁immoo	-9.83416
▁ሆቴል	-9.83416
▁ነበረበት።	-9.83416
▁አውቶቡስ	-9.83416
▁አደንቃለሁ።	-9.83416
▁dide	-9.83422
▁dhiibbaa	-9.83424
▁jabaa	-9.8343
▁እየሆነ	-9.83451
▁ሳይሆን	-9.83456
▁gabaasa	-9.83493
6	-9.83585
▁gidduutti	-9.83605
▁roobuu	-9.83738
ameera	-9.83768
▁mirga	-9.83871
▁karaan	-9.83989
mee	-9.84027
▁hawwataa	-9.8405
▁faransaayiin	-9.84097
▁ibsi	-9.84191
በዛ	-9.8421
▁sob	-9.84268
ከራ	-9.84355
▁ተጨ	-9.84386
▁እዳ	-9.8446
▁ላለ	-9.84506
lu	-9.84521
▁kaffala	-9.84523
ጤ	-9.84564
▁asoosama	-9.84566
▁dhukaasa	-9.84566
▁nyaadhu	-9.84566
▁ogummaa	-9.84566
▁shakkii	-9.84566
▁ሰማያዊ	-9.84566
▁ጉዳት	-9.84566
▁ቡድን	-9.84566
▁ስለነበር	-9.84566
▁koochoo	-9.84566
▁wallaal	-9.84569
▁ከመጠን	-9.84572
▁ለመጨረሻ	-9.84578
▁ያስፈልገዋል።	-9.846
▁oofuu	-9.84661
▁ተራራ	-9.847
▁duruu	-9.84775
ብህ	-9.84885
▁ገንዘቡን	-9.84942
ኑ።	-9.84992
▁barachuuf	-9.85032
ቡ።	-9.85108
ፈታ	-9.85129
▁ዝ	-9.85604
▁dhok	-9.85627
▁cimaadha	-9.85667
ም፣	-9.85673
▁geenye	-9.85729
▁ilaallu	-9.85729
▁kofalchiisu	-9.85729
▁አስቀድሜ	-9.85729
▁ኹዋላ	-9.85729
▁ውሾች	-9.85729
▁dugda	-9.85729
ጀምር	-9.8573
▁ያደረገው	-9.85733
▁gurra	-9.85734
▁A	-9.85739
▁dhibba	-9.85779
▁ጉንፋን	-9.85861
▁ስታ	-9.85863
▁የሆነውን	-9.85984
▁ይቻላል።	-9.86033
▁gaafadha	-9.86043
▁baane	-9.86155
▁meeqatu	-9.86181
▁murteessuu	-9.86191
▁ijaan	-9.86345
▁መጥ	-9.86356
▁yaali	-9.8638
▁sanaan	-9.86463
ታቸው	-9.86553
▁qa	-9.86619
▁ጨዋ	-9.867
ራሉ።	-9.86729
▁ያለብኝ	-9.86827
cha	-9.86849
▁seeraa	-9.86887
ንቀሳቀስ	-9.86905
▁barre	-9.86905
▁dhaggeeffachuu	-9.86905
▁gaddisiisa	-9.86905
▁manneen	-9.86905
▁ችግሮች	-9.86905
▁ኩባያ	-9.86905
▁furdaa	-9.86906
▁ተኛሁ።	-9.86906
▁ሰማሁ።	-9.86906
▁gaafatamummaa	-9.86911
▁gubbaa	-9.86912
▁kanneen	-9.86922
▁አጣሁ።	-9.86926
ሯል።	-9.86947
▁duraanis	-9.8697
▁አይሆንም።	-9.87077
ጸዳ	-9.87092
▁paa	-9.87115
ክ፧	-9.87227
▁ታስ	-9.87308
በቃ	-9.8748
ስ፧	-9.87499
ቶችን	-9.87655
ppii	-9.87683
▁አስብ	-9.88064
▁gaarummaa	-9.88096
▁lakkoofsi	-9.88096
▁televijiinii	-9.88096
▁ሁላችሁም	-9.88096
▁ሌሊቱን	-9.88096
▁ragaa	-9.88096
▁ወፍራም	-9.88096
▁qorannoo	-9.88101
▁koottaa	-9.88104
▁ተመልከት።	-9.88194
▁ድንቅ	-9.88213
▁miilaan	-9.88233
▁ይሰ	-9.88362
▁እባክዎ	-9.88403
▁ይገባ	-9.88632
▁hawwa	-9.8871
▁dogoggor	-9.88783
▁አንዱን	-9.88833
▁barataa	-9.88864
▁ጣቢያ	-9.88931
▁አመጣ	-9.89057
ርክ	-9.89074
ጁ	-9.89125
▁barumsaatti	-9.89165
▁dhufte	-9.89285
▁amanamummaa	-9.893
▁tiraafikaa	-9.893
▁ውሸት	-9.893
▁ስድስት	-9.893
▁ይሻላል።	-9.893
▁ቀሚስ	-9.89301
▁dhuge	-9.89301
▁ገበያ	-9.89301
▁ሞተ።	-9.89301
▁ጦርነት	-9.89308
▁gaafadhu	-9.8931
▁በዛ	-9.89349
▁ድን	-9.89427
ነቃ	-9.89472
▁qabate	-9.89511
nne	-9.89712
▁ደቂቃዎች	-9.89753
ችሉ	-9.89791
▁ያሉት	-9.89948
▁የመጨረሻ	-9.89992
▁qor	-9.90115
ነጋገር	-9.90146
▁እርስዎን	-9.90289
▁ካለ	-9.90392
▁isaati	-9.90483
▁ሻንጣ	-9.90495
▁dagat	-9.90505
ሞክር	-9.90518
ችኹዋለሁ።	-9.9052
▁ልረዳህ	-9.9052
▁በድንገት	-9.9052
▁የጃፓን	-9.9052
▁የፈረንሳይ	-9.9052
▁ይሻልሃል።	-9.9052
▁ይወዳሉ።	-9.9052
▁ጠየቀኝ።	-9.9052
▁ጣእም	-9.9052
▁ስለዚያ	-9.9052
▁ችሎታ	-9.9052
ለሰ	-9.90539
▁gammachiisu	-9.90546
በብ	-9.90568
▁በስራ	-9.90572
▁በቀን	-9.90576
▁ደክሞኛል።	-9.90681
▁h	-9.90758
4	-9.90767
ሂ	-9.90773
▁gal	-9.90836
▁ciniin	-9.90862
▁መቀመጫ	-9.90917
▁ጉዳዩ	-9.90933
▁fudhachuuf	-9.91057
tanii	-9.91196
መጥ	-9.91324
ርስ	-9.91324
▁አና	-9.91453
ጠበቅ	-9.91611
▁ፈገግ	-9.91636
▁ስን	-9.91666
▁በተቻለ	-9.91669
▁ሞከረ።	-9.91754
▁በጠረጴዛው	-9.91754
▁አስታውሳለሁ።	-9.91754
▁እየሞከርኩ	-9.91754
▁dabarsa	-9.91755
▁አይተሃል፧	-9.91755
▁ድመቶች	-9.91755
▁fiige	-9.91755
▁jaha	-9.91767
▁ታደርጋለህ፧	-9.91794
▁ብሆን	-9.91908
መስል	-9.91909
ru	-9.91993
ኦ	-9.92028
▁ችላ	-9.92041
aaf	-9.92087
ቆመ	-9.92118
▁qorraan	-9.92163
▁dhagaa	-9.92181
▁obsa	-9.92196
▁አይቼ	-9.92209
▁ulfaataadha	-9.92214
▁maatiin	-9.92255
መው	-9.9244
▁barnoota	-9.92467
▁ይችላል	-9.92533
uudha	-9.92576
ሳተ	-9.92675
▁qabamee	-9.92786
▁dhaquu	-9.92832
ha	-9.92834
▁hundatti	-9.92836
▁dhaabbate	-9.92872
▁ስብሰባ	-9.92898
ነብ	-9.92971
▁gammade	-9.92975
▁ቴሌቪዥን	-9.93004
▁ትመስላለች።	-9.93004
ፏ	-9.93005
▁sirbi	-9.93005
▁ስእል	-9.93005
▁መሮጥ	-9.93079
መጡ	-9.93092
▁turuun	-9.9326
▁የተሰራ	-9.93308
▁lafaa	-9.93359
▁ajaja	-9.93456
▁አያቴ	-9.93463
▁fiilmiin	-9.93535
▁kolfaa	-9.93559
ደስ	-9.93584
gaa	-9.93594
▁mallattoo	-9.93655
▁አውቅ	-9.93663
▁ኩባንያ	-9.9367
▁akkanatti	-9.93736
▁lola	-9.93803
ያት	-9.93835
▁እንዳለህ	-9.9394
▁fudhatu	-9.94019
▁go	-9.94028
dhee	-9.94035
▁ስሜ	-9.94146
▁ሞት	-9.94201
ያደርጉ	-9.94229
▁ቆሻሻ	-9.9427
▁የወንድ	-9.94271
▁michuu	-9.94271
▁xur	-9.94271
▁xiyyeeffannoo	-9.94273
▁ቶሎ	-9.94273
▁እብድ	-9.94274
▁nyaadhe	-9.94279
ዘገየ	-9.94279
▁አግኝቻለሁ።	-9.94284
▁fiigicha	-9.94296
▁argamne	-9.94383
anna	-9.94402
ታል	-9.94442
ከፋ	-9.9445
▁ool	-9.94456
ሙዋል።	-9.94484
ሰለ	-9.9454
▁ሁኔታው	-9.94586
ዎታል።	-9.94597
▁fufuu	-9.94641
▁ilaaluuf	-9.9478
3	-9.94841
▁cimaan	-9.94877
ታለሁ።	-9.9493
▁lubbuu	-9.9498
▁fidaa	-9.94993
▁barsiisuu	-9.95011
oon	-9.95047
tin	-9.95065
▁እያለ	-9.95216
ኝ፧	-9.95216
ራችሁ	-9.9525
▁daandiin	-9.95472
▁በዝቶ	-9.95545
▁nyaachaa	-9.95552
▁uffachuu	-9.95552
▁በባህር	-9.95552
▁ክብደት	-9.95552
▁የለብዎትም።	-9.95552
▁ጓደኞቼ	-9.95552
▁goonu	-9.95552
▁እርምጃ	-9.95552
▁አደረገ።	-9.95553
▁እቤት	-9.95553
▁መሬት	-9.95554
▁kaameeraa	-9.95556
▁እንዳንተ	-9.95557
▁ደረሰ።	-9.95558
▁በታች	-9.95558
▁olka	-9.95559
▁ሰጠኝ።	-9.9561
ችም።	-9.9565
ማል።	-9.95833
ad	-9.95846
▁ቅርብ	-9.95846
በሉ	-9.96014
amte	-9.96064
▁fide	-9.96079
▁turuuf	-9.9608
▁gabaa	-9.96145
▁እሱዋን	-9.96173
▁dhiisuun	-9.96223
▁borsaa	-9.96238
▁hi	-9.96267
▁qabadhu	-9.96292
ሱ።	-9.96321
de	-9.96478
▁ወሰደ	-9.9651
▁akkasuma	-9.96716
▁fudhadhe	-9.96828
▁aangoo	-9.96851
▁gitaara	-9.96851
▁ህጻኑ	-9.96851
▁ማጥፋት	-9.96851
▁በጥንቃቄ	-9.96851
▁በፓርኩ	-9.96851
▁እናውቃለን።	-9.96851
▁ክፍሌ	-9.96851
▁filadha	-9.96852
▁ሄድኩ።	-9.96853
▁የውጭ	-9.96859
ናገሩ	-9.96894
▁የእጅ	-9.96904
ሞላ	-9.96908
▁qaama	-9.97031
▁argina	-9.97042
▁dhihaat	-9.97146
▁o	-9.9717
▁geessu	-9.97559
▁turtan	-9.97615
▁dhaggeeffat	-9.97629
ol	-9.97644
▁ጥያቄዎች	-9.97654
▁kut	-9.97701
▁barreeffama	-9.98167
▁miliq	-9.98167
▁ruuzii	-9.98167
▁አይደለንም።	-9.98167
▁ፈለገ።	-9.98167
▁dhagahamu	-9.98167
▁ረሳሁት።	-9.98167
▁አስፈሪ	-9.98167
▁ፈጣን	-9.9817
ፈቀደ	-9.98197
iinsa	-9.98199
መልከ	-9.98217
▁dhugumatti	-9.98227
▁አለው፧	-9.98234
▁ላለመ	-9.98362
▁አሉ	-9.98472
8	-9.98515
▁30	-9.98579
▁waraanaa	-9.98618
▁quuf	-9.98648
▁ከሰ	-9.98666
▁anillee	-9.98677
▁hamaan	-9.9872
▁ቀስ	-9.98793
▁reefuu	-9.98804
▁himuuf	-9.98905
▁argadha	-9.98996
▁bitaa	-9.98998
▁ይቻላል	-9.99025
▁kanarraa	-9.99058
▁አላማ	-9.99185
▁sirna	-9.99393
ቆዩ	-9.99427
ፈልገው	-9.99436
ibu	-9.99467
▁deeggar	-9.995
▁dulloomaa	-9.995
)	-9.995
ዥ	-9.995
▁kottaa	-9.995
▁sooressa	-9.995
▁መነጽር	-9.995
▁ታክሲ	-9.995
▁እናደርጋለን።	-9.995
▁የምኖረው	-9.995
▁እሰራለሁ።	-9.995
▁eenyuuti	-9.99502
▁ቀልድ	-9.99503
▁ሱቅ	-9.99506
▁hirkat	-9.99506
▁አብረው	-9.99519
▁ብለን	-9.99561
▁ይቆ	-9.99617
ሱዋል።	-9.99622
ጡት	-9.99631
ረኝ	-9.99652
▁guyyaatti	-9.99653
▁argam	-9.99663
ልሃለሁ።	-9.99691
▁seena	-9.99708
▁አስራ	-9.99714
2	-9.99752
▁yaadadhu	-9.99809
▁ወይ	-9.99861
▁taasisa	-9.99878
ሃል	-9.99973
ረፍ	-10.0012
▁kaka	-10.0018
▁gochaa	-10.0033
▁caalaan	-10.0041
▁አለቃ	-10.005
▁ቀጥ	-10.0055
gar	-10.0059
ነቅ	-10.0069
▁gareen	-10.0071
ቀል	-10.0072
uma	-10.0075
▁walgahiin	-10.0076
▁yakka	-10.0079
▁dandeessi	-10.0085
ኸኝ	-10.0085
▁dhiheenya	-10.0085
▁intalli	-10.0085
▁kolleejjii	-10.0085
▁ርካሽ	-10.0085
▁መሰለኝ።	-10.0085
▁ማሳለፍ	-10.0085
▁አይሰማኝም።	-10.0085
▁ምላሽ	-10.0085
▁ለአንተ	-10.0085
▁መኝታ	-10.0085
▁መብት	-10.0086
▁gurgurtaa	-10.009
▁torbanitti	-10.0091
▁beektuu	-10.0119
ግብ	-10.0121
▁turu	-10.0124
▁biraatti	-10.0134
▁hiikuu	-10.0141
ነው።	-10.0151
▁lakki	-10.0156
▁baase	-10.016
▁jalqabuu	-10.0207
ይዝ	-10.0216
▁አግኝ	-10.0219
▁ዋ	-10.0221
▁agarsiise	-10.0222
▁farda	-10.0222
▁herrega	-10.0222
▁kolfi	-10.0222
▁soogidda	-10.0222
▁sukkaara	-10.0222
▁ሁለተኛ	-10.0222
▁ቀድሞውኑ	-10.0222
▁በአጋጣሚ	-10.0222
▁አማራጭ	-10.0222
▁በሶስት	-10.0222
▁የበረዶ	-10.0222
▁ለሁለት	-10.0222
▁yoomiitti	-10.0222
▁ባህር	-10.0222
▁kuma	-10.0223
▁እህት	-10.0223
▁ህግ	-10.0227
▁የተሞላ	-10.0228
▁haasofsiisuu	-10.023
▁ሞከርኩ።	-10.0231
▁keetti	-10.0236
▁hangas	-10.024
rk	-10.0244
▁bitatte	-10.0244
▁አወ	-10.0249
▁guddat	-10.0251
ጎት	-10.0257
▁xumurame	-10.027
▁ራሴ	-10.028
▁dubbiin	-10.028
▁በግ	-10.0297
▁bilcheessuu	-10.0327
ሩት	-10.0332
አይ	-10.0343
▁ልጠይቅህ	-10.0348
▁ummata	-10.0359
▁በትምህርት	-10.0361
▁በክፍሉ	-10.0361
▁በጉጉት	-10.0361
▁አስደናቂ	-10.0361
▁አይወድም።	-10.0361
▁ይበልጣል።	-10.0361
▁ጀልባ	-10.0361
▁እንዳደርግ	-10.0361
▁የመኪና	-10.0361
▁ማንኛውም	-10.0361
▁ነሽ።	-10.0361
▁erge	-10.0361
▁የትርፍ	-10.0361
▁የስራ	-10.0362
▁gorsite	-10.0364
▁dhuga	-10.0364
▁አሉን።	-10.0365
▁ፍሬ	-10.0367
▁ንግግር	-10.0368
ዎታል፧	-10.037
tiif	-10.0374
▁sadiif	-10.0383
▁bare	-10.0387
ሳለ	-10.0391
▁jalqab	-10.0399
▁mirkaneessuu	-10.04
▁አባቱ	-10.0415
ቀይ	-10.0416
▁አባት	-10.0416
▁galma	-10.042
▁yaad	-10.0422
▁argame	-10.0425
ደውል	-10.0437
▁kunuunsuu	-10.0441
▁ያኔ	-10.0448
▁kennine	-10.045
▁ትክክለኛ	-10.0454
▁xiyyaaraa	-10.0465
▁ሰጥ	-10.0465
boo	-10.0469
▁ለእሱ	-10.048
▁አይነ	-10.0493
▁seenu	-10.0494
▁ofuma	-10.0496
▁akeekkachiis	-10.0502
▁dhaggeeffadh	-10.0502
▁dhuftu	-10.0502
▁ለጥቂት	-10.0502
▁ቀጠለ።	-10.0502
▁በሳምንት	-10.0502
▁አላሰብኩም	-10.0502
▁አሰልቺ	-10.0502
▁እሞክራለሁ።	-10.0502
▁walaloo	-10.0502
▁በራሴ	-10.0502
▁ገንዳ	-10.0502
▁በገና	-10.0503
▁ሀገር	-10.0505
▁ፓ	-10.051
▁ነበርን።	-10.0515
▁ታውቃለህ።	-10.0519
▁galata	-10.0519
▁እንዲሆን	-10.0527
▁እንደማት	-10.0532
nis	-10.0533
▁እያየ	-10.0552
▁መንገዱን	-10.0556
▁hojjetan	-10.056
▁ibiddaa	-10.0561
▁dhiisa	-10.0569
▁sirreess	-10.057
ህም፧	-10.0572
ፈለግ	-10.0576
▁dhukkubbiin	-10.058
ኛል	-10.0582
mni	-10.0584
op	-10.0587
▁kanatti	-10.0593
▁የሰው	-10.0593
ላቸው	-10.0596
▁የትም	-10.0597
▁agarsiisuu	-10.0599
▁nyaachuun	-10.0609
▁xumuruu	-10.0615
ቻችን	-10.0624
ናደድ	-10.0624
▁ይቅር	-10.0634
ዷ	-10.0642
▁አይን	-10.0642
▁nyaate	-10.0644
▁lammii	-10.0644
▁jirru	-10.0645
▁waliigaltee	-10.0645
▁walxaxaa	-10.0645
▁ለመጀመሪያ	-10.0645
▁እራስህን	-10.0645
▁ይመልከቱ።	-10.0645
▁ፊልሞች	-10.0645
▁ይሞክሩ።	-10.0645
መለከቱ	-10.0645
▁ilaalte	-10.0645
▁amanne	-10.0645
▁achumaan	-10.0648
▁ለመብላት	-10.065
▁እንሄዳለን።	-10.065
▁አይደለችም።	-10.0652
▁keenyayyuu	-10.0652
▁jeequmsa	-10.0653
▁ይኖራል።	-10.0653
▁አልቁዋል።	-10.0654
▁mudateera	-10.0655
▁hawwatu	-10.0657
▁qaroodha	-10.066
▁hatattamaan	-10.066
▁ofumaan	-10.066
በት።	-10.0665
umsaa	-10.0674
▁አፍ	-10.0682
▁አራት	-10.0687
▁አነሳ	-10.0691
▁jiraachuun	-10.0691
ጽፍ	-10.0703
ibaati	-10.0707
▁የምችለው	-10.0707
imni	-10.0709
▁qoos	-10.0712
▁isheetiin	-10.072
ጀመር	-10.0728
▁dubbise	-10.0728
▁umrii	-10.0729
▁dogoggoraan	-10.073
ሽን	-10.0736
▁ይፈ	-10.0752
▁አልፈልግም	-10.0755
▁በአል	-10.0762
ቁዋል።	-10.0767
▁aarii	-10.0769
▁daawwat	-10.0789
▁karoorfadh	-10.079
▁dubbatin	-10.079
▁fincaanii	-10.079
▁ilaalcha	-10.079
▁ሁለታችንም	-10.079
▁ማብሰል	-10.079
▁ሬዲዮ	-10.079
▁አልፈለኩም።	-10.079
▁እጠብቃለሁ።	-10.079
▁የተለመደ	-10.079
▁bidiruu	-10.079
▁ስኳር	-10.079
▁amanachuu	-10.079
▁balalii	-10.0794
▁amanamaa	-10.0795
▁ilaalle	-10.0795
▁marga	-10.0798
▁ያለብህ	-10.0799
▁jibb	-10.0799
▁በየ	-10.0802
▁ወሬ	-10.0803
▁argatta	-10.0803
▁አበባ	-10.0804
▁kamtu	-10.0806
▁godhan	-10.0814
▁miidhaa	-10.0817
▁fida	-10.082
▁እገዛ	-10.0827
▁ki	-10.0829
▁dhumaaf	-10.0858
ቢያ	-10.0873
▁marii	-10.088
▁ሊረዳ	-10.0884
▁መቶ	-10.091
▁isaaniif	-10.0922
▁murtii	-10.0927
ባብ	-10.0935
▁asirratti	-10.0937
▁chaayinaa	-10.0937
▁doktarri	-10.0937
▁idilee	-10.0937
▁መምህሩ	-10.0937
▁ማስታወሻ	-10.0937
▁በሁሉም	-10.0937
▁በማንኛውም	-10.0937
▁እንቅስቃሴ	-10.0937
▁ከጥቂት	-10.0937
▁ውጤት	-10.0937
▁ዝርዝር	-10.0937
▁በማለዳ	-10.0937
▁shubbisuu	-10.0937
▁የሚችል	-10.0937
▁በራስ	-10.0938
▁መንሸራተት	-10.0938
▁ትወዳለች።	-10.0942
▁kunooti	-10.0942
▁ifaadha	-10.0946
▁dubbisuun	-10.0948
▁ፈተናውን	-10.0953
▁ያደርጋል።	-10.0954
▁አይደለህም።	-10.0957
ሁም።	-10.0971
ድም	-10.0975
▁sagaleen	-10.0985
▁sirreessuu	-10.0989
ነገረ	-10.0994
▁የማርያምን	-10.0995
▁hidhii	-10.1
ከው፧	-10.1016
ሬን	-10.102
ላለች።	-10.1026
▁ok	-10.1037
▁3	-10.105
ሴን	-10.1052
ሚያ	-10.1054
▁kuta	-10.1073
ሮቹ	-10.1074
ጠይቁ	-10.1082
▁birraa	-10.1086
▁fudhanne	-10.1086
▁mallatteess	-10.1086
▁mindaa	-10.1086
▁በስተቀር	-10.1086
▁በአውስትራሊያ	-10.1086
▁ከትምህርት	-10.1086
▁ጫጫታ	-10.1086
▁ምልክት	-10.1086
▁morma	-10.1086
▁የሚወዱት	-10.1086
▁sarara	-10.1086
▁ግብዣ	-10.1086
▁cidha	-10.1087
▁አበቦች	-10.1087
▁qabe	-10.1089
▁እሱዋም	-10.1091
▁መደወል	-10.1097
achuuf	-10.1108
atan	-10.1118
▁mata	-10.1126
▁dhiyeess	-10.1128
▁tura	-10.115
▁barachuun	-10.1151
▁badaa	-10.1154
▁እዛ	-10.1159
ጋባ	-10.117
▁dhalootaa	-10.1176
▁garaagarummaa	-10.1176
▁dubbii	-10.1183
▁yaalii	-10.1187
▁hiriyaan	-10.1193
▁ያደረ	-10.1198
▁oolch	-10.1212
▁bittaa	-10.122
ቪ	-10.1237
▁awurooppaa	-10.1237
▁dubbattu	-10.1237
▁qubee	-10.1237
▁sakatta	-10.1237
▁urjii	-10.1237
▁ማጥናት	-10.1237
▁ታስባለህ፧	-10.1237
▁አልነበረውም።	-10.1237
▁nyaachis	-10.1237
▁ማብራሪያ	-10.1237
▁ሸሚዝ	-10.1237
▁ኮምፒውተር	-10.1237
▁እራሱን	-10.1237
▁dhabde	-10.1238
▁ትልቁ	-10.1238
▁mufat	-10.1238
▁ትኩስ	-10.1238
▁ማንሳት	-10.1238
▁ያነሰ	-10.1238
▁በኩል	-10.1238
▁ትሄዳለህ፧	-10.1239
▁iskii	-10.1239
▁ገዛ።	-10.1239
▁galchi	-10.1239
▁dadhabde	-10.1241
▁ማሽን	-10.1246
▁ወዲያው	-10.1247
▁ለመማር	-10.1251
▁qabadheera	-10.1255
▁baranne	-10.1257
▁dandeessan	-10.1266
▁gu	-10.1267
ላችሁ፧	-10.1267
ዞር	-10.127
▁akaakayyuun	-10.1276
▁kenname	-10.1279
▁jiraate	-10.1281
too	-10.1281
▁gaafachuuf	-10.1299
በታል።	-10.1313
▁ajaj	-10.132
▁kolfa	-10.1323
ደወል	-10.1329
▁turtee	-10.134
nitti	-10.135
▁እንደሌለ	-10.1355
adhu	-10.136
▁አፈ	-10.1361
▁እቃዎች	-10.1362
ድል	-10.137
▁K	-10.1391
ዣ	-10.1391
▁qabs	-10.1391
▁barbaannu	-10.1391
▁carraaqqii	-10.1391
▁dubartoota	-10.1391
▁አልፏል።	-10.1391
▁ጨካኝ	-10.1391
▁አረፍተ	-10.1391
▁ያስባል።	-10.1391
▁ጨለማ	-10.1391
ረጋጋ	-10.1391
▁ganda	-10.1392
▁በሽታ	-10.1392
▁ይወስዳል።	-10.1392
▁geesse	-10.1392
▁ከስራ	-10.1392
▁እናንተ	-10.1394
▁አስቀድሞ	-10.1395
▁እንደምትፈልግ	-10.1396
▁ደስታ	-10.1404
▁boona	-10.1407
▁baraar	-10.1416
▁deeman	-10.1437
ኤ	-10.1449
▁አያስ	-10.1464
▁deemin	-10.1483
▁caccab	-10.1489
ያየ	-10.1494
▁ትላንት	-10.1534
▁jeeq	-10.1538
▁H	-10.1545
▁godhi	-10.1547
▁2:30	-10.1548
▁cimee	-10.1548
▁furmaata	-10.1548
▁ህይወቱ	-10.1548
▁መፍትሄ	-10.1548
▁በአትክልቱ	-10.1548
▁ተጫዋች	-10.1548
▁እወስዳለሁ።	-10.1548
▁ወረቀት	-10.1548
▁ያድርጉ።	-10.1548
ዉ	-10.1548
▁ibiddi	-10.1548
▁ማጠቢያ	-10.1548
▁ይፈልጋሉ።	-10.1548
▁የማይቻል	-10.1548
▁ለማወቅ	-10.1548
▁aadaa	-10.1548
▁ቆመ።	-10.1548
▁ጨዋታው	-10.1549
▁እቃ	-10.1549
▁ሰርቻለሁ።	-10.1551
▁የሚል	-10.1554
▁በሆነ	-10.1565
ttuu	-10.1566
▁መቀመጥ	-10.157
ffaa	-10.1576
▁ውሻውን	-10.1578
mp	-10.1584
ዎቼ	-10.1588
▁calli	-10.1593
▁ያላቸው	-10.1608
▁kaase	-10.1612
ok	-10.1616
▁hubat	-10.1617
▁kaasuu	-10.1622
▁jiraachaa	-10.1629
ብኝ።	-10.1631
ቻቸው	-10.1639
ታት	-10.1653
▁cufuu	-10.1657
▁dhiyeessii	-10.1662
▁qabaadhee	-10.1681
adheera	-10.1689
▁qaroo	-10.1691
▁dhaabbat	-10.1691
▁የሆነው	-10.1702
▁dagadhe	-10.1703
ጢ	-10.1706
▁dubbannu	-10.1706
▁gammadde	-10.1706
▁qamisa	-10.1706
▁yaabbachuu	-10.1706
▁ለማንኛውም	-10.1706
▁ዣንጥላ	-10.1706
▁የቅርብ	-10.1706
▁funyoo	-10.1706
▁wanta	-10.1706
▁ተመልሶ	-10.1706
▁seerri	-10.1706
▁ቀጠሮ	-10.1706
▁galchuu	-10.1707
▁ንግድ	-10.1707
▁ዳቦ	-10.1707
▁ጸጥ	-10.1707
▁ቤቶች	-10.1707
▁በግልጽ	-10.1708
▁barbaaddan	-10.1709
▁dur	-10.1709
ወሰድኩ	-10.171
▁gammachiisaa	-10.1711
▁dhumeera	-10.1715
▁deemtee	-10.1719
▁qabame	-10.1721
▁kanatu	-10.1731
▁20	-10.1737
▁እፈልግ	-10.174
ቃል።	-10.174
ጥር	-10.1743
▁ወሰደ።	-10.1749
▁አደጋው	-10.1755
▁jedhama	-10.1756
▁የሚሆን	-10.1766
▁cabe	-10.1767
tam	-10.1775
ገናኝ	-10.1778
▁bilbilaan	-10.1781
▁qabnedha	-10.1783
▁madaa	-10.1788
▁fudhachuun	-10.1795
▁የነበረው	-10.182
▁iyya	-10.1821
ite	-10.1826
▁ባለው	-10.1829
ከፈለ	-10.1841
▁darbi	-10.1843
▁ያለፈ	-10.1845
▁daawwachuu	-10.185
▁kami	-10.1859
▁qulqulleessu	-10.1867
ጩ	-10.1868
▁beellama	-10.1868
▁ispoortii	-10.1868
▁magariisa	-10.1868
▁qamadii	-10.1868
▁እንደተፈጠረ	-10.1868
▁የሚናገረው	-10.1868
▁ያገኘሁት	-10.1868
▁ይመስላሉ።	-10.1868
▁miilli	-10.1868
▁ያለብዎት	-10.1868
▁እንደምትችል	-10.1868
▁የጥርስ	-10.1868
▁sibiila	-10.1868
▁onnee	-10.1868
▁beeknu	-10.1869
▁malu	-10.1869
▁dhuftee	-10.187
▁ልዩነት	-10.1873
▁barsiis	-10.1875
▁I	-10.1884
▁አላስ	-10.1889
▁dhala	-10.189
ተካ	-10.1892
ji	-10.19
▁አመቱ	-10.19
▁ጠላ	-10.1906
▁saanii	-10.1907
▁is	-10.1917
ራችን	-10.1943
▁ጫማዎች	-10.1951
▁dhugu	-10.1965
▁aduun	-10.1972
▁ያለኝ	-10.1975
▁olaanaa	-10.1982
▁ce	-10.1984
▁beekee	-10.2
▁harkifat	-10.2005
▁ቢሆን	-10.2005
▁kopheen	-10.2009
▁ብታ	-10.2019
▁አነ	-10.202
ስክ	-10.203
▁shakka	-10.203
▁agarsiisi	-10.2032
▁masaraa	-10.2032
▁መሆኔን	-10.2032
▁ምክንያታዊ	-10.2032
▁በመንገድ	-10.2032
▁የተናገረው	-10.2032
▁ዳግመኛ	-10.2032
▁tolle	-10.2032
▁አውቀዋለሁ።	-10.2032
▁ተውኩት።	-10.2032
▁የሉም።	-10.2032
▁guddina	-10.2034
▁ሚስት	-10.2034
▁kunuunsa	-10.2034
▁በራሱ	-10.2034
▁waldaa	-10.2035
▁galte	-10.2039
▁እንደሚፈልግ	-10.2045
▁ቁልፉን	-10.2046
▁ተመለከተ።	-10.2048
▁fuulduratti	-10.2057
ረሳ	-10.2062
ዋለን።	-10.2069
ዳል።	-10.2097
▁keenyatti	-10.2098
▁ያውቅ	-10.2106
▁barsiisa	-10.2109
▁ifatti	-10.2112
▁gad	-10.2119
▁cufamee	-10.2123
መልስ	-10.2123
nnee	-10.2131
▁ስሙ	-10.2136
▁bane	-10.2143
▁jaalalaa	-10.2144
ደረጉ	-10.2147
▁makam	-10.2148
ናል	-10.2148
ለዋል።	-10.2149
▁ሂ	-10.2151
▁dhiha	-10.216
ቺ	-10.2175
▁amane	-10.218
ሳል።	-10.2188
ዘጋጅ	-10.2189
▁bahuun	-10.2197
▁beeysiboolii	-10.2198
▁dubbachaa	-10.2198
▁ሌሊት	-10.2198
▁መልቀቅ	-10.2198
▁በባቡር	-10.2198
▁ዛፎች	-10.2198
▁ያድርጉት።	-10.2198
▁አሮጌ	-10.2198
▁ደርሱዋል።	-10.2198
▁አልወደውም።	-10.2198
▁መራመድ	-10.2198
▁ከፈለግክ	-10.2198
▁ጥፋት	-10.2198
▁እግሬ	-10.2199
▁ይመስላችኹዋል፧	-10.2199
▁ልምድ	-10.2199
▁አደረግሁ።	-10.2199
▁dhoksaa	-10.2201
▁hojjett	-10.2201
ዷል።	-10.2202
▁እመለሳለሁ።	-10.2202
▁kudhaniin	-10.2205
▁ክፍሉን	-10.2207
▁ናቸው	-10.2216
ዳቸው	-10.2218
▁ብቻህን	-10.222
koo	-10.2221
▁duubaan	-10.2234
▁ciisee	-10.2245
▁jalatti	-10.2251
ettaa	-10.2254
▁dhaqeen	-10.226
▁hundarra	-10.2262
▁baradhe	-10.227
▁ስምህን	-10.2277
▁እመ	-10.2297
▁sanaatti	-10.2304
ሱዋ	-10.2306
▁qabaachuun	-10.2336
▁cufe	-10.2342
ሳይ	-10.2355
▁torba	-10.2358
▁gaafatam	-10.236
ጨነቅ	-10.2361
ፉ።	-10.2365
▁ajjeefam	-10.2368
▁bilcheessi	-10.2368
▁dhiheesse	-10.2368
▁አረንጓዴ	-10.2368
▁ዘግይቶ	-10.2368
▁ባለሙያ	-10.2368
▁አደርገዋለሁ።	-10.2368
▁ከፈለጉ	-10.2368
▁አጎቴ	-10.2368
▁ወንዙ	-10.2368
▁ፈረስ	-10.2368
▁ምስል	-10.2368
▁safuu	-10.237
▁እሳቱ	-10.237
▁ብላ	-10.2372
▁argattu	-10.2378
▁ሂድ	-10.2381
▁maariyaamiif	-10.2382
▁አደ	-10.2383
▁dhaqee	-10.2384
▁የምለው	-10.2393
▁እናትህ	-10.2398
ማሪ	-10.2403
▁dhiisu	-10.2413
ረዳው	-10.2419
▁kufaatii	-10.243
ቀላቀል	-10.2438
▁xalayaan	-10.2443
▁diina	-10.2453
sk	-10.2455
▁ይህንኑ	-10.2464
▁ulfaata	-10.2464
▁tasuma	-10.2465
▁galaana	-10.2474
▁siyaasaa	-10.2481
▁ajjeese	-10.2481
▁8	-10.2495
▁አዲሱን	-10.25
▁keetiin	-10.2502
ቀድሞ	-10.251
▁gahu	-10.2521
▁qunnamuu	-10.253
▁ድር	-10.2536
ደኝ	-10.2538
ሸንፍ	-10.254
▁ayyaanni	-10.254
▁barreeffame	-10.254
▁hubanne	-10.254
▁መደነስ	-10.254
▁ማቆሚያ	-10.254
▁ሻወር	-10.254
▁እንቁላል	-10.254
▁eegne	-10.254
▁ማስተካከል	-10.254
▁አልሆነም።	-10.254
▁ነፋሱ	-10.254
▁አስተዋይ	-10.254
▁ወዴት	-10.254
▁kamiinuu	-10.254
▁መደብር	-10.254
▁kaartaa	-10.254
▁ብቃት	-10.254
▁የምችል	-10.254
▁እኩል	-10.2541
▁ለማንበብ	-10.2541
▁እድሉ	-10.2541
▁ጠፋ።	-10.2541
▁joon	-10.2541
▁ሽታ	-10.2542
ፈጠር	-10.2543
▁dhaabe	-10.2543
ዝናና	-10.2546
▁ዘመን	-10.2546
▁xumurre	-10.255
▁fedhiin	-10.2553
ሳሳት	-10.2553
ጥቅ	-10.2555
▁hangamii	-10.2557
▁beekamaa	-10.2563
ከፈተ	-10.2571
▁baatu	-10.2574
▁fudhatte	-10.2574
▁fufa	-10.2583
▁xumuramu	-10.2587
attu	-10.2597
▁hu	-10.2601
▁dadhabee	-10.2604
▁ri	-10.2606
▁barnootaa	-10.2615
▁ፓርቲው	-10.2621
▁gog	-10.2627
▁uumamaa	-10.2635
ያችን	-10.2672
▁እፈልጋለሁ	-10.2681
▁6	-10.2689
▁baafadh	-10.269
▁lafti	-10.2716
▁waraanni	-10.2716
▁ሚስጥር	-10.2716
▁ሳምንታት	-10.2716
▁አቅራቢያ	-10.2716
▁እየጨመረ	-10.2716
▁ክርስቲያን	-10.2716
▁ፊልሙ	-10.2716
▁ለመድረስ	-10.2716
▁ክፍያ	-10.2716
▁ነጥብ	-10.2716
▁bunni	-10.2716
▁የሚያምር	-10.2716
▁ጥንድ	-10.2716
▁baga	-10.2716
▁ጫፍ	-10.2716
▁ስነ	-10.2717
▁raafam	-10.2717
▁ለእራት	-10.2718
▁ወደቀ።	-10.2719
▁እንዳለብህ	-10.2719
▁baradheera	-10.2721
fte	-10.2721
▁የሚያውቅ	-10.2722
▁መጓዝ	-10.2723
▁argamuun	-10.2724
▁እየሄደ	-10.2729
▁እየሰራሁ	-10.2729
▁ኪ	-10.273
▁ሆነ፧	-10.2738
▁eeguun	-10.2739
▁ammatti	-10.2748
ይዘው	-10.2749
▁isaatiif	-10.2754
▁በጎ	-10.2757
ቱዋል፧	-10.2765
▁hammamii	-10.2768
▁dhungat	-10.2771
▁ስራው	-10.2785
▁እንዳላ	-10.279
▁deebitee	-10.2794
▁hayyamamu	-10.2795
et	-10.2797
▁sodaata	-10.2803
▁የሚገባ	-10.2812
▁mirgaa	-10.2823
▁obomboleettii	-10.2833
▁ደወል	-10.2837
▁dhuftan	-10.2847
▁jechuudha	-10.2848
▁galu	-10.2865
▁አባትህ	-10.2867
▁ጓደኛህ	-10.2882
▁ሃሳብ	-10.2887
yyuu	-10.2887
ጎበኘ	-10.2894
ፔ	-10.2894
▁boqqolloo	-10.2894
▁chaappaa	-10.2894
▁fudhannu	-10.2894
▁hiyyeessa	-10.2894
▁sekondii	-10.2894
▁ላናግርህ	-10.2894
▁እንድታደርግ	-10.2894
▁እየጠበቀ	-10.2894
▁የባህር	-10.2894
▁ጋዜጣ	-10.2894
▁ጽሁፍ	-10.2894
▁ብሉዋል።	-10.2894
▁kiisha	-10.2894
▁kukii	-10.2894
▁ቢላዋ	-10.2894
▁amantaa	-10.2894
▁boba	-10.2894
▁harkifachuu	-10.2894
▁የአለም	-10.2894
▁አስተም	-10.2894
▁እንዳለብን	-10.2895
▁አቅም	-10.2895
bar	-10.2897
▁ተገቢ	-10.2898
▁ያውቃል፧	-10.2898
▁dhukkubsataa	-10.2898
▁ተኝቱዋል።	-10.29
▁እንደሚችሉ	-10.29
▁himata	-10.2901
▁falm	-10.2902
▁ያለህ	-10.2903
ኛለች።	-10.2912
▁fudhatama	-10.2915
▁መያዝ	-10.2916
▁መብራቱን	-10.2916
▁አይኖች	-10.292
▁gammadu	-10.292
▁እንድትሄድ	-10.2921
▁ከእሱዋ	-10.2922
በላሽ	-10.2926
▁beeksisa	-10.2931
ለት።	-10.2934
▁ደብዳቤውን	-10.2938
ሽም።	-10.2941
▁keessanitti	-10.2942
▁mudatee	-10.2944
▁dabalaa	-10.2958
▁ስላል	-10.296
▁bishaaniin	-10.2968
▁ለማስ	-10.2969
▁ካር	-10.2984
▁hate	-10.2995
▁የሚፈልጉት	-10.2996
▁መልሱ	-10.2998
መኝ	-10.2998
▁sanarra	-10.3004
▁jirutti	-10.3011
▁kaayyoo	-10.3014
▁ነበሩ	-10.3033
▁ምት	-10.304
▁እነዚያን	-10.304
▁dhugaan	-10.3045
▁dib	-10.3058
▁fuudhuu	-10.3073
▁adeerri	-10.3076
▁dhaggeeffachaa	-10.3076
▁hantuuta	-10.3076
▁raawwachuu	-10.3076
▁warqee	-10.3076
▁ሰከንድ	-10.3076
▁በመጀመሪያ	-10.3076
▁በእነዚህ	-10.3076
▁ነበረብህ።	-10.3076
▁ከኹዋላ	-10.3076
▁ወጪ	-10.3076
▁ጸሀይ	-10.3076
▁ፖስታ	-10.3076
▁ጥፋተኛ	-10.3076
▁አይርሱ።	-10.3076
▁እንገናኝ።	-10.3076
▁ላገኝህ	-10.3076
▁አሳየኝ።	-10.3076
▁ደካማ	-10.3076
▁ጥገና	-10.3076
▁ይምጡ።	-10.3076
▁በቤተ	-10.3076
▁ሆን	-10.3076
▁hattuu	-10.3077
▁ያዘ።	-10.3077
▁yeen	-10.3077
▁ilaali	-10.3078
▁gadda	-10.3078
▁dorgommii	-10.3079
▁የምግብ	-10.308
▁በስብሰባው	-10.308
▁በረራ	-10.3083
▁argateera	-10.3083
▁መበደር	-10.3087
▁ሃይል	-10.3087
▁buufataatti	-10.3091
▁dab	-10.3099
▁dhabne	-10.3101
▁እንድሄድ	-10.3103
▁qaxxaamur	-10.3115
▁amansiis	-10.3119
▁አጠፋ	-10.3126
▁የለም	-10.3128
▁deemnee	-10.3144
▁jijjiiramu	-10.3151
▁bilcheessuun	-10.3157
▁መኪናዬን	-10.316
▁ለዛ	-10.316
▁ittiin	-10.3171
ከተል	-10.3197
▁mootummaa	-10.32
ibe	-10.3201
▁seeraan	-10.3219
▁hojjettee	-10.3224
▁fudhat	-10.323
▁dabalataan	-10.323
ho	-10.3244
ዱኝ	-10.3249
▁jedham	-10.3254
መለሱ	-10.3256
▁ታማኝ	-10.3258
▁መስሎ	-10.326
▁raawwate	-10.3261
▁tuffat	-10.3261
▁ልጃገረዶች	-10.3261
▁ልጆቼ	-10.3261
▁ማባከን	-10.3261
▁ሾርባ	-10.3261
▁ተንኮለኛ	-10.3261
▁አስቸኳይ	-10.3261
▁erguu	-10.3261
▁ግማሽ	-10.3261
▁መድረስ	-10.3261
▁ጆሮ	-10.3261
▁ረሳሁ።	-10.3261
▁ሚስቱ	-10.3261
▁fuudhe	-10.3262
▁ሳይቆይ	-10.3263
▁መስመር	-10.3263
▁kanaadaa	-10.3263
▁ናት፧	-10.3265
▁ዘዴ	-10.3268
▁አድርግ።	-10.327
▁ይውሰዱ።	-10.3271
▁bad	-10.3271
▁ላስ	-10.3277
▁ዜናውን	-10.3279
▁ciisuu	-10.328
▁እንደምታ	-10.3282
▁ገናን	-10.3286
▁ልጅቱዋ	-10.3287
▁እንደሚሰራ	-10.329
▁fur	-10.3293
ሰቡ	-10.3293
▁akkaataan	-10.33
▁የከፋ	-10.3301
▁dursa	-10.3302
▁በመቶ	-10.3306
▁guutame	-10.3309
▁ወፍ	-10.3315
ባር	-10.3318
▁baratte	-10.332
▁ስልኩን	-10.3336
▁saffisa	-10.3341
▁እኛን	-10.3343
▁ያልተ	-10.3345
lakki	-10.3352
anni	-10.3363
▁gadhiisuu	-10.3375
achuun	-10.3379
▁gamoon	-10.3381
▁hojjetta	-10.3382
ተሃል።	-10.3383
dheen	-10.3392
▁baate	-10.3397
▁giddu	-10.3401
▁gurbaan	-10.3415
▁5	-10.3429
▁S	-10.3431
▁ይላ	-10.3432
▁burtukaana	-10.345
▁qulqulleessi	-10.345
▁dafnee	-10.345
▁dubbadha	-10.345
▁dubbatta	-10.345
▁liqeesse	-10.345
▁liqimfam	-10.345
▁nyaannu	-10.345
▁odola	-10.345
▁piizaa	-10.345
▁ለመረዳት	-10.345
▁የለበትም።	-10.345
▁የለብኝም።	-10.345
▁ደርሶ	-10.345
▁diriir	-10.345
▁በአሁኑ	-10.345
▁እስማማለሁ።	-10.345
▁እመጣለሁ።	-10.345
▁tolchi	-10.345
▁ጀመርኩ።	-10.345
▁meetira	-10.345
▁ጥልቅ	-10.345
▁dhiqachuu	-10.345
▁ያልሆነ	-10.345
▁saawwan	-10.3451
▁mannaa	-10.3452
▁የራስ	-10.3452
▁ነበርክ፧	-10.3453
▁ይሁን	-10.3453
▁alagaa	-10.3454
ማለች።	-10.3454
▁bitu	-10.3456
▁አብሬ	-10.3456
▁manatti	-10.3456
▁ስለሆነ	-10.3458
▁ሰባት	-10.346
▁አየሩ	-10.3465
▁አዘጋጅ	-10.3466
ፉት	-10.3468
▁ilaalamu	-10.3472
▁akkasumaan	-10.3472
▁ያቺ	-10.3473
ኝነት	-10.3476
ሙ።	-10.3484
ሰጠው	-10.3486
▁ስል	-10.3504
laan	-10.3504
▁ተና	-10.3515
▁nuffisiisaa	-10.3522
▁baasee	-10.353
00	-10.3531
▁galcha	-10.3539
▁dhaqe	-10.3553
▁himame	-10.3554
ateera	-10.3566
▁bineensota	-10.3569
ani	-10.3572
▁tookiyoo	-10.3625
▁faransaay	-10.3634
▁uffadhu	-10.3637
▁jedhi	-10.3637
▁አድርጌ	-10.3639
▁መልበስ	-10.3642
▁ሹራብ	-10.3642
▁በልጅነቴ	-10.3642
▁ብርሃን	-10.3642
▁አውሮፕላኑ	-10.3642
▁አፓርታማ	-10.3642
▁የእረፍት	-10.3642
▁መንግስት	-10.3642
▁በተሻለ	-10.3642
▁ጓደኛሞች	-10.3642
▁አንዲት	-10.3642
▁ariifat	-10.3642
▁አልሄድም።	-10.3642
▁ሁለቱንም	-10.3642
▁boolla	-10.3642
▁ሳጥኑ	-10.3642
▁ሱሪ	-10.3642
▁ገባሁ።	-10.3643
ሞቱ	-10.3643
▁dhagahuu	-10.3643
▁geessa	-10.3644
imman	-10.3645
▁ስኬት	-10.3646
▁ilaalta	-10.3649
▁ደግሞ	-10.365
ttu	-10.3652
▁barreessa	-10.3657
▁መጀመር	-10.3658
▁hayyamu	-10.366
▁argita	-10.3664
▁argite	-10.3665
▁xiyyaara	-10.3667
▁nyaattu	-10.3671
▁miidhame	-10.3676
▁baaburaa	-10.3678
▁taphachuun	-10.368
▁qabachuuf	-10.3682
▁hundaan	-10.3704
▁እንደሰራ	-10.3717
▁ittisuu	-10.3724
ኬት	-10.3728
▁aanaa	-10.3746
▁jaalalaan	-10.3752
▁በላ	-10.3754
▁ወንድም	-10.3757
▁eeggadha	-10.3762
▁argata	-10.3789
▁ውሃው	-10.3792
▁hafa	-10.38
▁ሁለቱ	-10.3811
▁qorat	-10.3815
▁kunis	-10.3824
በደር	-10.3827
▁bil	-10.3831
ish	-10.3835
▁gat	-10.3836
▁fuulduraa	-10.3838
▁battaluma	-10.3838
▁faarfannaa	-10.3838
▁imimmaan	-10.3838
▁miillaan	-10.3838
▁mirkaneeffachuu	-10.3838
▁qufa	-10.3838
▁tikkeettii	-10.3838
▁ለመውጣት	-10.3838
▁መረዳት	-10.3838
▁ማስወገድ	-10.3838
▁ምርመራ	-10.3838
▁ተናጋሪ	-10.3838
▁ትችላላችሁ፧	-10.3838
▁አልነበርኩም።	-10.3838
▁አውቄ	-10.3838
▁እጠራጠራለሁ።	-10.3838
▁ወንጀል	-10.3838
▁የትራፊክ	-10.3838
▁የሚኖረው	-10.3838
▁ድንጋይ	-10.3838
▁ፈልጎ	-10.3838
▁ሙከራ	-10.3838
▁የአበባ	-10.3838
▁ቤታችን	-10.3838
▁ድግስ	-10.3838
▁እኩለ	-10.3838
▁ሄድን።	-10.3839
▁ግምት	-10.3839
▁ሄዱ።	-10.3839
▁በሌላ	-10.3839
▁ተዘግቱዋል።	-10.384
▁በላሁ።	-10.384
▁አልነበረብኝም።	-10.3842
▁xiyyeeffannaa	-10.3843
▁የምወደው	-10.3844
▁መከረችው።	-10.3845
▁cimtee	-10.3847
▁ካርታ	-10.3851
▁Na	-10.3851
▁jedhanii	-10.3855
▁አታውቅም።	-10.3856
▁raawwatam	-10.3856
▁eegi	-10.3859
▁መቀበል	-10.3859
▁አብዛኛውን	-10.386
▁ጥሪ	-10.3862
and	-10.3862
▁argatu	-10.3863
▁አይደለም፧	-10.387
▁hojjetamuu	-10.3879
▁lamaaf	-10.388
▁barate	-10.3885
▁dhabee	-10.3885
▁lamaanuu	-10.3898
▁xumuruuf	-10.39
ነቱን	-10.3902
▁hordofaa	-10.3917
▁የምትፈልገውን	-10.3918
▁ትክክለኛውን	-10.3919
iyaa	-10.3944
▁tolchuu	-10.395
▁kute	-10.395
▁ham	-10.397
▁ጉዳዩን	-10.3971
▁hordofuu	-10.3985
▁ብን	-10.3993
waa	-10.4002
▁ይቅርታ።	-10.4004
▁abjuun	-10.4012
▁ደም	-10.4012
▁እንደምን	-10.402
▁kunoo	-10.4023
▁biqil	-10.4036
መጽሀፉ	-10.4037
ሼ	-10.4038
፥፥	-10.4038
▁gargaarsi	-10.4038
▁kitaabonni	-10.4038
▁michoota	-10.4038
▁qullaa	-10.4038
▁uffanni	-10.4038
▁viidiyoo	-10.4038
▁xixiqqoo	-10.4038
▁ለመቆየት	-10.4038
▁በህይወቴ	-10.4038
▁በአውቶቡስ	-10.4038
▁አልፈለገም።	-10.4038
▁ይጫወታል።	-10.4038
%	-10.4038
▁ንፋስ	-10.4038
▁አሳፋሪ	-10.4038
▁እቆያለሁ።	-10.4038
▁ጨረቃ	-10.4038
▁ለእግር	-10.4038
▁ባለቤት	-10.4038
▁የአካል	-10.4038
▁adeera	-10.4038
▁godhinaa	-10.4038
▁ቴሌቪዥኑን	-10.4039
▁nyaat	-10.4039
▁የሚያስፈልገኝ	-10.4039
▁ቅጽ	-10.4039
▁በቁም	-10.4039
ወያይ	-10.4039
▁የግል	-10.404
▁dheera	-10.4044
▁ለመያዝ	-10.4047
▁መንከባከብ	-10.4048
▁ዘገባ	-10.4062
▁ንግግሩ	-10.4065
▁jijjiirame	-10.4072
▁barii	-10.4077
ኮራ	-10.4079
▁caaludha	-10.408
▁jennee	-10.4082
▁banaadha	-10.4088
▁dhalate	-10.4097
▁saffisaa	-10.4097
▁obomboleettiin	-10.4107
▁dhufan	-10.4109
iraa	-10.4109
▁dibu	-10.4116
▁መጽሀፍትን	-10.4125
ሮጥ	-10.4128
▁የሚፈልጉትን	-10.413
ያወራ	-10.4134
▁biratti	-10.4136
▁የጠፋ	-10.4141
▁doo	-10.4143
▁እውን	-10.4156
▁4	-10.4161
▁የምትፈልገው	-10.4163
▁ኤ	-10.4166
▁ስልኩ	-10.4168
▁maashinii	-10.4181
▁የሚሰራ	-10.4189
▁baasu	-10.4196
▁eegalee	-10.4229
▁ስራህን	-10.4235
▁ጠራ	-10.4236
▁loo	-10.4236
▁gaaffiin	-10.4239
▁gargaare	-10.4239
▁አድርጎ	-10.424
▁qajeel	-10.4241
ጇ	-10.4242
▁Yeroo	-10.4242
▁fokkisaa	-10.4242
▁rifeensi	-10.4242
▁ሀኪሙ	-10.4242
▁በጊዜ	-10.4242
▁ቢኖረኝ	-10.4242
▁አላየሁም።	-10.4242
▁አዝኛለሁ።	-10.4242
▁አይታየኝም።	-10.4242
▁ይመስልሃል፧	-10.4242
▁ዝናቡ	-10.4242
▁ምግቡ	-10.4242
▁የምትችለው	-10.4242
▁yookaan	-10.4242
▁በተለይ	-10.4242
▁ilaalla	-10.4242
▁አሪፍ	-10.4242
▁tolcha	-10.4242
▁ሰአቱ	-10.4242
▁ብሩህ	-10.4242
▁ግዴታ	-10.4242
▁ወጣሁ።	-10.4243
▁ወንዝ	-10.4243
▁dhukkubsattee	-10.4243
▁ፎቅ	-10.4243
▁በውሃ	-10.4243
▁fagoodha	-10.4243
ጧል።	-10.4244
▁kuduraalee	-10.4245
▁ሰርቱዋል።	-10.4248
▁የለብንም።	-10.4248
▁ምቹ	-10.4252
ኩበት	-10.4253
▁ማሸነፍ	-10.4255
ከፍል	-10.4258
▁ለመመለስ	-10.4263
▁falma	-10.4263
▁አፍንጫ	-10.4268
ቡዋል።	-10.4273
▁በምን	-10.4274
ቀጣ	-10.4281
▁ሰራ	-10.4289
▁እንደሆኑ	-10.4292
▁rakkisa	-10.4302
▁ሳል	-10.4303
▁ዘና	-10.433
▁መልሱን	-10.4335
▁jaallattan	-10.4344
▁እየመጣ	-10.4344
▁madaal	-10.4345
▁shubbisaa	-10.4351
ዲስ	-10.4354
▁heerum	-10.4361
▁sagal	-10.4363
▁የማርያም	-10.4369
▁aartii	-10.4371
▁የእሱን	-10.4382
▁ajaje	-10.4387
▁taasise	-10.4405
▁teessoon	-10.4415
▁waggaan	-10.4418
▁murt	-10.4433
▁baafat	-10.4435
ichaa	-10.4446
▁uffadh	-10.4446
▁nyaadhee	-10.4449
▁saddeet	-10.445
▁injifate	-10.4451
▁saantima	-10.4451
▁tulluu	-10.4451
▁xiyyaarri	-10.4451
▁መቀጠል	-10.4451
▁መገናኘት	-10.4451
▁ተሸፍኗል።	-10.4451
▁ቸኮሌት	-10.4451
▁የትምህርት	-10.4451
▁ያልተለመደ	-10.4451
ቫ	-10.4451
▁ህዝብ	-10.4451
▁እየፈለግኩ	-10.4451
▁ክራባት	-10.4451
▁ለዚያ	-10.4451
▁fakkaachuu	-10.4451
▁ዘፋኝ	-10.4451
▁garba	-10.4451
▁ወፎች	-10.4451
▁ታናሽ	-10.4451
▁እቅዱ	-10.4451
▁የምንፈልገው	-10.4452
▁guddachaa	-10.4452
▁ልብሶች	-10.4453
isuuf	-10.4456
▁yaaleera	-10.4459
▁kolfuu	-10.4462
▁maariyaamitti	-10.4463
▁ካርድ	-10.4465
▁dhiba	-10.4477
ጠቀሙ	-10.4481
▁እራስዎን	-10.4485
▁dhiqat	-10.449
ተወው	-10.4497
▁እንዲሄድ	-10.4498
▁yaadi	-10.4517
▁fayya	-10.4524
▁fayyadamu	-10.4528
▁dubbisuuf	-10.4528
▁eeyyee	-10.4535
▁gaafachuun	-10.4541
ዋለች።	-10.455
▁jedhan	-10.4554
▁የምችለውን	-10.457
ቀጥል	-10.4576
▁rafaa	-10.4578
▁መንገዱ	-10.4581
▁ወላጆች	-10.4588
▁rafee	-10.4591
▁hogganaan	-10.4595
▁darbu	-10.4597
▁oduun	-10.46
▁tilmaame	-10.4602
ሆነ	-10.4609
▁jiidha	-10.4613
teetta	-10.4624
▁eegd	-10.4626
▁ከማን	-10.463
▁hubatu	-10.4634
▁fudhadhaa	-10.464
▁suukaneessaa	-10.4642
▁bishaanii	-10.465
ኩትም።	-10.4651
ላት።	-10.4659
▁abukaatoo	-10.4663
▁ajjeechaa	-10.4663
▁cheezii	-10.4663
▁dhiyaat	-10.4663
▁dhugoom	-10.4663
▁faallaa	-10.4663
▁firijii	-10.4663
▁gurguddoo	-10.4663
▁jaallachuu	-10.4663
▁krawattii	-10.4663
▁soorama	-10.4663
▁ነበረብን።	-10.4663
▁አላገኘሁም።	-10.4663
▁አሰበ።	-10.4663
▁አታስብ።	-10.4663
▁የአትክልት	-10.4663
▁ሆኗል።	-10.4663
▁በርሳቸው	-10.4663
▁አትፈልግም፧	-10.4663
▁እበላለሁ።	-10.4663
▁እያደረገ	-10.4663
▁ይፈልጋል፧	-10.4663
▁miirri	-10.4663
▁ምግቦች	-10.4663
▁የምንችለው	-10.4663
▁ደህንነት	-10.4663
▁አንብቤ	-10.4663
▁የመሬት	-10.4663
▁እንደነበረ	-10.4663
▁እርሳስ	-10.4663
▁መነሳት	-10.4663
▁እጄን	-10.4664
▁እምነት	-10.4664
▁hatame	-10.4664
▁ባንክ	-10.4664
▁እስር	-10.4665
▁bashannan	-10.4665
▁qorichi	-10.4665
ሞክሩ	-10.4665
▁qabatamaa	-10.4665
ዘፍን	-10.4667
▁kor	-10.4667
▁ajjeesuu	-10.4667
▁የምትወደው	-10.4668
▁ጤናማ	-10.4669
▁ለእኛ	-10.467
ኮች	-10.467
▁ሞኝነት	-10.4671
ፈቅድ	-10.4672
▁tilmaamuun	-10.4675
▁ባውቅ	-10.4676
▁eenyullee	-10.4677
▁sobe	-10.4678
▁ደንቦቹን	-10.4682
▁ፊቱ	-10.4697
▁tokkoffaa	-10.4709
▁cufaa	-10.4712
▁qaxxaamuree	-10.4717
▁dhufta	-10.472
▁እንዳሉ	-10.4727
liin	-10.4734
▁baasi	-10.4738
▁kaasuun	-10.4746
▁duratti	-10.4774
▁beeksis	-10.4777
▁እየቀ	-10.4781
ኢ	-10.4783
ቡት	-10.4803
▁የመጣ	-10.4815
ሰሙ	-10.4839
▁ቀና	-10.4844
▁himuun	-10.4861
ጬ	-10.4881
▁argitu	-10.4881
▁boqot	-10.4881
▁dhaabbachuu	-10.4881
▁dhiironni	-10.4881
▁goolfii	-10.4881
▁mufachiis	-10.4881
▁muraasni	-10.4881
▁መቀነስ	-10.4881
▁መክፈት	-10.4881
▁መጨረስ	-10.4881
▁መፍቀድ	-10.4881
▁በማርያም	-10.4881
▁አልቻለችም።	-10.4881
▁አልነበሩም።	-10.4881
▁አብዛኞቹ	-10.4881
▁እናድርግ።	-10.4881
▁እንደማስበው	-10.4881
▁ለመፍታት	-10.4881
▁ጃንጥላ	-10.4881
▁jechi	-10.4881
▁ማግባት	-10.4881
▁እገባለሁ።	-10.4881
▁ያውቃሉ።	-10.4881
▁ሰነፍ	-10.4881
▁ከአስር	-10.4881
▁ወጣች።	-10.4881
▁አካል	-10.4881
▁afuuf	-10.4882
▁ዳር	-10.4883
▁አግኝቱዋል።	-10.4884
▁G	-10.4884
▁ጥበብ	-10.4884
▁ያስፈልገኛል።	-10.4885
▁ulfaate	-10.4886
▁murteesseen	-10.4887
▁barattuu	-10.4887
▁ዘግይቱዋል።	-10.4887
ሉት።	-10.4888
▁hax	-10.4888
▁ወራት	-10.489
▁መቀየር	-10.489
▁መለወጥ	-10.4892
▁የምፈልገውን	-10.4895
▁dhabeera	-10.4897
▁daawwachuuf	-10.4904
▁ገጽ	-10.4904
ibsiifate	-10.4906
▁ዋሽ	-10.4908
▁himeera	-10.4909
▁jechaa	-10.491
▁ብቸኛው	-10.4914
▁እንደሚመጣ	-10.4917
▁ለማን	-10.493
▁argiteetta	-10.4933
▁qabaadhu	-10.4937
▁ከሱ	-10.4938
▁tursi	-10.4944
▁taphatu	-10.4946
▁tureera	-10.4951
▁qurxummiin	-10.4954
▁ገላ	-10.4954
▁duree	-10.4965
▁ልሄድ	-10.4965
ቆሙ	-10.4977
▁ስላለ	-10.4977
▁jalqabaaf	-10.4983
▁barat	-10.4996
ጠብቁ	-10.5002
ያቸው	-10.5006
ዩት	-10.5052
▁jiruuf	-10.5069
ter	-10.5075
ነግሩኝ	-10.5101
▁burjaaj	-10.5103
▁buruushiin	-10.5103
▁dhageessis	-10.5103
▁dhungachuu	-10.5103
▁dubartoonni	-10.5103
▁dubbadhe	-10.5103
▁haasofne	-10.5103
▁jaalladhe	-10.5103
▁jajjabeess	-10.5103
▁paaspoortii	-10.5103
▁shamizii	-10.5103
▁waajjirri	-10.5103
▁መከላከያ	-10.5103
▁ሽጉጥ	-10.5103
▁ቁራጭ	-10.5103
▁በቅርብ	-10.5103
▁በብስክሌት	-10.5103
▁በየአመቱ	-10.5103
▁አለብን፧	-10.5103
▁ዶክተሩ	-10.5103
▁ጥንቃቄ	-10.5103
▁ሰሌዳ	-10.5103
▁ከሁለት	-10.5103
▁ስምምነት	-10.5103
▁ታሪኩ	-10.5103
▁daangaa	-10.5103
▁amalli	-10.5103
▁ተቀመጠ።	-10.5103
▁kanaafidha	-10.5103
▁komii	-10.5103
▁ተብሎ	-10.5103
▁በስልክ	-10.5103
▁ሰማይ	-10.5104
ስቲክ	-10.5104
▁dandamachuu	-10.5104
▁ልትሰጠኝ	-10.5104
▁ዝቅተኛ	-10.5105
▁አየሁት።	-10.5105
▁yakkamaa	-10.5106
▁ቆዳ	-10.5106
▁ኮት	-10.5106
▁ትወዳለህ፧	-10.5107
▁ጥርስ	-10.5107
▁dhukkubsatee	-10.5108
▁ምሳሌ	-10.5109
▁ምድር	-10.5111
▁አልሰጠ	-10.5111
▁መተማመን	-10.5112
▁ናት።	-10.5113
መስለው	-10.5121
▁ይሆናል፧	-10.5131
▁ሊኖር	-10.5136
▁darbeera	-10.5139
▁dubbisu	-10.5143
ጆቹ	-10.5145
▁adaadaan	-10.5145
▁dhiiga	-10.5172
▁gannaa	-10.5203
▁ጎን	-10.5216
▁ዋጋው	-10.5219
▁ibse	-10.5225
▁cabee	-10.5235
▁jibbu	-10.5239
▁አእምሮ	-10.5256
▁maalii	-10.528
▁እንስሳ	-10.5282
▁ልጆቹን	-10.5308
ረሱ	-10.5311
መለከተ	-10.5314
▁gargaaruun	-10.5327
▁arrabs	-10.533
▁dargaggummaa	-10.533
▁dhiqannaa	-10.533
▁riqichi	-10.533
▁xinnoo	-10.533
▁መምህር	-10.533
▁ስእሎች	-10.533
▁ተስማሚ	-10.533
▁አራዊት	-10.533
▁አስቀድመው	-10.533
▁እሰጥሃለሁ።	-10.533
▁እጠይቃለሁ።	-10.533
▁ወሰነ።	-10.533
▁የሚያደርገው	-10.533
▁ይመስልዎታል፧	-10.533
▁ጠርሙስ	-10.533
▁ጡረታ	-10.533
▁himtu	-10.533
▁ጠፍቱዋል።	-10.533
▁መርከብ	-10.533
▁አለባት።	-10.533
▁መመሪያ	-10.533
▁gaazii	-10.533
▁አይሰራም።	-10.533
▁የእሳት	-10.533
▁ልሰጥህ	-10.533
▁jabina	-10.533
▁sobduu	-10.533
▁ሰራተኞች	-10.533
▁ዶሮ	-10.5331
▁tolche	-10.5331
▁ጻፈ	-10.5331
▁liftii	-10.5331
▁ሺህ	-10.5331
▁ciisichaa	-10.5331
▁ሁን።	-10.5331
▁የአንተ	-10.5331
▁ማጣት	-10.5331
▁የሚለውን	-10.5331
▁የውሻ	-10.5332
▁እሳት	-10.5332
▁utuu	-10.5332
ኗል።	-10.5333
▁ከንቱ	-10.5334
▁ከሁሉም	-10.5339
▁ልጁን	-10.534
▁አውሎ	-10.5342
▁eeggannoodhaan	-10.5345
▁መጨነቅ	-10.5346
▁መፈለግ	-10.5349
▁በግራ	-10.5351
▁oomisha	-10.5355
▁ማስተማር	-10.5359
▁baasuun	-10.5361
▁የሱ	-10.5375
▁tom	-10.5379
▁raas	-10.5383
▁yaaddee	-10.5383
▁የሚበላ	-10.5389
▁መጽሀፍት	-10.5395
▁xiqqaan	-10.5402
▁sodaachisaa	-10.5405
▁baasuuf	-10.5406
▁hafuu	-10.5411
ዳለች።	-10.5414
▁ለሚ	-10.5417
▁ወለድ	-10.5419
▁nyaatte	-10.5422
▁gahaadha	-10.5426
▁uffatt	-10.5453
▁dhadhaa	-10.5458
▁ሰርተሃል	-10.546
ow	-10.5466
▁ጨው	-10.5469
▁call	-10.5486
▁dhiigaa	-10.5492
▁furuu	-10.5497
ኖቹ	-10.5499
ገባሁ	-10.5503
▁taphadha	-10.5525
▁በከተማ	-10.5525
▁የመጣሁት	-10.5528
▁hor	-10.5537
▁ትሆናለህ	-10.555
ለወጥ	-10.5551
▁hubadhe	-10.556
እግዚአብሄር	-10.5563
▁button	-10.5563
▁fagaachuu	-10.5563
▁fiixee	-10.5563
▁fudhachaa	-10.5563
▁hadoochu	-10.5563
▁kompitara	-10.5563
▁loltoonni	-10.5563
▁mudatu	-10.5563
▁oromoo	-10.5563
▁sigaaraa	-10.5563
▁መንቀጥቀጥ	-10.5563
▁በእንግሊዝኛ	-10.5563
▁ቤዝቦል	-10.5563
▁አውሮፕላን	-10.5563
▁አድርገው	-10.5563
▁እንዲያደርግ	-10.5563
▁እድገት	-10.5563
▁ኮንሰርቱ	-10.5563
▁ውሸታም	-10.5563
▁gahumsa	-10.5563
▁ይኖራሉ።	-10.5563
▁ድንገተኛ	-10.5563
▁jaarsi	-10.5563
▁መዘመር	-10.5563
▁የተጻፈ	-10.5563
▁አሳዛኝ	-10.5563
▁እየጠበቅኩ	-10.5563
▁ተሰማው።	-10.5563
▁ጎልፍ	-10.5563
▁fufi	-10.5563
▁አልበላም።	-10.5563
▁እህቶች	-10.5563
▁jaalanne	-10.5563
▁filachuu	-10.5563
▁መንገር	-10.5563
▁ላንተ	-10.5564
ጠብቀው	-10.5564
▁100	-10.5565
▁ሩቅ	-10.5565
ወዳት	-10.5566
▁ጥረት	-10.5569
▁bitadheera	-10.5572
▁አገኛለሁ።	-10.5581
▁deemtaa	-10.5585
▁galmaan	-10.5589
▁dhaabbaticha	-10.5592
ተቀበለ	-10.5598
▁ajjeesuuf	-10.5598
▁jedhamu	-10.5599
▁hubatte	-10.5599
▁qalla	-10.5611
▁አባል	-10.5612
▁ይደር	-10.5615
▁miidhuu	-10.5624
▁dhuguuf	-10.5624
▁kabaj	-10.563
▁ሊያስ	-10.5638
ተኩስ	-10.5644
vi	-10.5644
▁ይኖር	-10.5645
▁dubbatan	-10.5646
▁barsiise	-10.5655
▁keenyaaf	-10.5668
▁borsaan	-10.5674
▁harkifate	-10.5675
ተናገርኩ	-10.5701
▁hayyamuu	-10.5706
ራለን።	-10.5707
▁ባይ	-10.5716
▁akaakayyuu	-10.574
ኛል፧	-10.5744
▁uumame	-10.5748
ታቸውን	-10.5762
▁ካላ	-10.5762
▁suuraan	-10.5763
▁አልችልም	-10.5766
▁dubbisa	-10.577
▁አይሆንም	-10.5772
▁ግድግዳው	-10.5776
▁ደክሞ	-10.5784
▁fageenya	-10.5785
▁ቅዳሜ	-10.5788
ኳት።	-10.5792
ኹዋት።	-10.58
▁Maal	-10.5801
▁rakkadh	-10.5801
ኤሌክትሪክ	-10.5801
▁alkoolii	-10.5801
▁kofalchiisa	-10.5801
▁miiccaa	-10.5801
▁mudata	-10.5801
▁qisaasuu	-10.5801
▁qusachuu	-10.5801
▁መገመት	-10.5801
▁ሜትር	-10.5801
▁ስኬታማ	-10.5801
▁ትእግስት	-10.5801
▁እየሞከረ	-10.5801
▁ክፍሎች	-10.5801
▁ወስኛለሁ።	-10.5801
▁የህይወት	-10.5801
▁የአሜሪካ	-10.5801
▁ጠየቀ።	-10.5801
▁ጨርሻለሁ።	-10.5801
▁ጮክ	-10.5801
▁አንፈልግም።	-10.5801
▁እንዴ፧	-10.5801
▁ጠየቅኩት።	-10.5801
▁አስከፊ	-10.5801
▁qofti	-10.5801
▁አስበዋል፧	-10.5801
▁አይቀርም።	-10.5801
▁እናገራለሁ።	-10.5801
▁yaaddessa	-10.5801
▁gaabba	-10.5801
▁rakkisuu	-10.5801
▁ማለፍ	-10.5801
▁ይወድ	-10.5801
▁ከሌለ	-10.5802
▁ወደፊት	-10.5802
▁hammaataa	-10.5802
▁jaallatamaadha	-10.5802
መገብ	-10.5802
ናደርግ	-10.5802
▁ለብሳለች።	-10.5802
▁amantii	-10.5804
▁ሰራተኛ	-10.5804
▁ይላሉ።	-10.5805
▁ቀጥሎ	-10.5806
▁fakkaatti	-10.5806
▁barruulee	-10.5808
ቸዋለሁ።	-10.581
▁yaaleen	-10.5811
▁dhaabatee	-10.5815
ኳቸው።	-10.5821
▁ምክንያቱም	-10.5822
▁ማረፊያው	-10.5825
▁barbaadeen	-10.5825
▁ለመኖር	-10.5826
ሻለሁ።	-10.5832
▁guddoo	-10.5835
riin	-10.5836
▁ቅን	-10.5838
▁ይላል።	-10.5844
▁አውሮፓ	-10.5862
መጣሁ	-10.5873
▁እየሰራህ	-10.5878
▁ጥያቄውን	-10.5879
▁ወላጆችህ	-10.5886
ዎትም።	-10.5888
isuun	-10.5906
eesse	-10.5915
▁isaaniitti	-10.5915
▁ጠቅ	-10.5916
▁አዎ	-10.5923
▁rukutame	-10.5934
eeyyee	-10.5946
▁dandeesse	-10.5947
▁dukkana	-10.5956
▁jaallatan	-10.5973
▁addunyaan	-10.5984
▁ውሻዬ	-10.5988
▁ማጨስን	-10.5989
▁bana	-10.599
▁jenne	-10.5991
▁bilbiluun	-10.5992
▁ብቸኛ	-10.6008
▁falmii	-10.6009
▁deebitu	-10.6009
▁dhipha	-10.6021
▁ትክክለኛው	-10.6027
▁ቁር	-10.6028
▁ያለበት	-10.603
▁ትፈልጋለህ	-10.6032
በዛበት	-10.6035
▁ሃላፊ	-10.6042
ጠናቀቅ	-10.6045
▁barbaaddi	-10.6045
▁dilbata	-10.6045
▁hojjenna	-10.6045
▁jarmanii	-10.6045
▁kiiloo	-10.6045
▁saayinsii	-10.6045
▁sofaa	-10.6045
▁weellisaa	-10.6045
▁ማልቀስ	-10.6045
▁ማስቀመጫ	-10.6045
▁ሰምተሃል፧	-10.6045
▁ሹፌር	-10.6045
▁አስቆራጭ	-10.6045
▁አናውቅም።	-10.6045
▁ይመለከታል።	-10.6045
▁ጠየቃት።	-10.6045
▁ፍንዳታ	-10.6045
▁dafii	-10.6045
▁dafqa	-10.6045
▁dhageesse	-10.6045
▁waamicha	-10.6045
▁በርሳችን	-10.6045
▁በወንዙ	-10.6045
▁አሳለፍኩ።	-10.6045
ታደርጉ	-10.6045
▁rakkat	-10.6045
▁መፍታት	-10.6045
▁በመጥፎ	-10.6045
▁እሰማለሁ።	-10.6045
▁ህመሙ	-10.6045
▁በሁለት	-10.6045
▁እርጥብ	-10.6045
▁የሚገርም	-10.6045
▁ተናደደ።	-10.6045
▁በቤት	-10.6045
▁dhageessanii	-10.6045
▁sadan	-10.6045
▁ciift	-10.6046
▁የለሽ	-10.6046
▁murteessa	-10.6046
▁የምሰራው	-10.6046
▁hojjettoonni	-10.6046
▁eenyuun	-10.6048
ቃወም	-10.605
▁ደክሞኝ	-10.6054
▁gaafanne	-10.6054
▁dadhaboo	-10.606
▁የልብስ	-10.6062
▁hubate	-10.6063
▁cimsee	-10.6066
▁kenneera	-10.6071
▁furuuf	-10.6072
ትወድ	-10.6082
▁ስፖርት	-10.6083
▁እየበላ	-10.6087
▁callisee	-10.6089
ጨርስ	-10.6093
dhii	-10.6104
▁sodaate	-10.6104
▁ቁም	-10.6105
▁እንዲረዳ	-10.6118
▁caccabee	-10.6137
ጣራ	-10.6142
ot	-10.6145
▁garaagarummaan	-10.6145
▁ቢያ	-10.6154
▁gaafa	-10.616
▁ኩባንያው	-10.6162
▁hojjetama	-10.6171
ወድቅ	-10.619
▁yaadame	-10.6192
▁አይቶ	-10.6196
▁faay	-10.6198
▁ስምህ	-10.6201
▁ነገርኩት።	-10.6207
▁ገንዘቡ	-10.6213
▁meeshaaleen	-10.6215
▁የራሱ	-10.6217
▁jaam	-10.6239
▁qophiidha	-10.6246
▁አያውቅም	-10.626
▁መልእክ	-10.6269
ንከባከብ	-10.6283
በስል	-10.6287
▁እንደሆነች	-10.6289
▁barbaachise	-10.6295
▁dursitee	-10.6295
▁kolfe	-10.6295
▁kuufamaa	-10.6295
▁lallaafaa	-10.6295
▁quxisuu	-10.6295
▁waxabajjii	-10.6295
▁ሃይለኛ	-10.6295
▁ለሰአታት	-10.6295
▁ለስላሳ	-10.6295
▁በተሳሳተ	-10.6295
▁በፍቅር	-10.6295
▁አስተማማኝ	-10.6295
▁የሙቀት	-10.6295
▁የጸሀይ	-10.6295
▁ጀመሩ።	-10.6295
▁ጠንክሮ	-10.6295
▁ጸጉሬ	-10.6295
▁ciccir	-10.6295
▁gorse	-10.6295
▁qunnama	-10.6295
▁xiqqeess	-10.6295
▁ሄዷል።	-10.6295
▁መደበኛ	-10.6295
▁በክፍል	-10.6295
▁qajeelfama	-10.6295
▁ሂሳብ	-10.6295
▁ፍቃድ	-10.6295
▁የፈለኩት	-10.6295
▁ደፋር	-10.6295
▁fakkaattu	-10.6295
▁ለብዙ	-10.6295
ጠይቀኝ	-10.6295
▁giiftii	-10.6295
▁ergi	-10.6295
▁አሉዋቸው።	-10.6295
▁ቀጭን	-10.6295
▁መካነ	-10.6295
▁እንይ።	-10.6295
▁አዳዲስ	-10.6296
▁ሰውዬው	-10.6296
ከፍት	-10.6296
▁dhaabbatichi	-10.6296
▁dhukkubni	-10.6296
▁ስለማ	-10.6296
▁ulee	-10.6297
▁gargaareera	-10.6299
▁hirmaat	-10.6301
ከለከለ	-10.6302
▁kunneen	-10.6303
▁obbolaa	-10.6305
ነፍስ	-10.6305
▁የተለያዩ	-10.6308
▁እድሜው	-10.6316
▁ደረሰኝ	-10.6317
▁dhaladhe	-10.6322
▁bittaaf	-10.6323
ጠጡ	-10.6328
▁ሁለታችሁም	-10.6331
▁ብሄድ	-10.6335
▁ህይወቴን	-10.6338
▁እጁን	-10.6344
▁ላይሆን	-10.635
ወለድ	-10.6365
▁ነች	-10.6367
▁ቀኝ	-10.6376
▁ተከራ	-10.6378
▁baala	-10.6379
▁ibs	-10.6382
▁እንዳለው	-10.6385
ቃሉ።	-10.6387
▁kaasi	-10.6392
▁faaya	-10.6393
▁ajajam	-10.6399
ልን።	-10.6399
▁heerumte	-10.6404
elaa	-10.6417
▁ስሙን	-10.6418
ነዋል።	-10.642
▁ነገሩ	-10.6425
▁አልጋው	-10.6436
▁ግብ	-10.6444
▁ሲል	-10.6462
▁adabam	-10.6497
▁qulqulluudha	-10.65
አስራ	-10.6503
▁awwaal	-10.6507
▁guutee	-10.6508
▁አይደለህም	-10.6516
▁መኪናዬ	-10.6531
taniif	-10.6532
▁እስክ	-10.6542
▁barruu	-10.6543
ነግርህ	-10.6544
▁ተዘግ	-10.655
▁dhoo	-10.6551
ተመለከት	-10.6551
O	-10.6551
▁adams	-10.6551
▁dagadhu	-10.6551
▁dhaamsuu	-10.6551
▁dhiphina	-10.6551
▁dirqisiis	-10.6551
▁eeggadhu	-10.6551
▁fakkeenya	-10.6551
▁jarreen	-10.6551
▁komachuu	-10.6551
▁ለመዋኘት	-10.6551
▁ለፖሊስ	-10.6551
▁እንዳገኘ	-10.6551
▁የሁለተኛ	-10.6551
▁የሚቆጠሩ	-10.6551
▁ያስቀምጡ።	-10.6551
▁bubbee	-10.6551
▁kaansarii	-10.6551
▁አሉዋት።	-10.6551
▁የማይታመን	-10.6551
▁jilba	-10.6551
▁ትላለህ፧	-10.6551
▁ለሌላ	-10.6551
▁ያደረግኩት	-10.6551
▁ካለፈው	-10.6551
▁የምንችል	-10.6551
▁ይቆዩ።	-10.6551
▁ሲጋራ	-10.6551
▁ልማድ	-10.6551
▁ወለሉ	-10.6551
▁yen	-10.6552
▁የልጅ	-10.6552
ጎበኝ	-10.6552
▁ሩዝ	-10.6552
▁baratamne	-10.6553
▁leenji	-10.6553
▁ሰራሁ።	-10.6554
▁tuul	-10.6554
▁ለራሱ	-10.6554
▁gadde	-10.6556
▁ተኛ።	-10.6556
▁ቆይቱዋል።	-10.6556
▁dhangalaas	-10.6559
▁ቦርሳዬን	-10.6561
▁duute	-10.6562
▁እንደምፈልግ	-10.6562
▁ተናገረ።	-10.6563
▁T	-10.6563
ቻቸውን	-10.6564
▁እየሰሩ	-10.6567
▁ያልኩት	-10.6568
onkolaachisummaa	-10.657
▁pirojektii	-10.6571
▁መሃል	-10.6575
▁jalqabu	-10.6576
▁barame	-10.6579
▁jedhamee	-10.658
moota	-10.6584
▁qabattee	-10.6593
▁midhaan	-10.6595
▁ማዶ	-10.6608
▁ውድቅ	-10.6615
▁የራሱን	-10.6637
rt	-10.6641
▁bashannanaa	-10.6648
▁filannoon	-10.6649
ከፈት	-10.6653
▁ውሻዬን	-10.6654
ጋለ	-10.6692
▁bashannana	-10.6714
መዋል።	-10.6721
▁sunis	-10.6725
▁rafa	-10.6729
▁ያሉትን	-10.6731
miin	-10.6747
▁dubbi	-10.675
▁nyaattan	-10.6757
▁bilbilame	-10.6768
ሃለሁ	-10.6797
▁qaalii	-10.6802
▁dibe	-10.6804
▁gorsi	-10.6808
▁kaffale	-10.6811
▁Akka	-10.6814
▁abdann	-10.6814
▁duukaa	-10.6814
▁duumessa	-10.6814
▁funyaan	-10.6814
▁hojjennu	-10.6814
▁ሂሳቡን	-10.6814
▁ለትምህርት	-10.6814
▁መታጠቢያ	-10.6814
▁ሚሊዮን	-10.6814
▁ማሳለፊያ	-10.6814
▁ሳንቲም	-10.6814
▁በስድስት	-10.6814
▁በቀጥታ	-10.6814
▁በአጠቃላይ	-10.6814
▁አስቀያሚ	-10.6814
▁ውስብስብ	-10.6814
▁ፖሊሶች	-10.6814
ዟ	-10.6814
▁dhiheessi	-10.6814
▁galatoomi	-10.6814
▁haasoft	-10.6814
▁በዝቶብኛል።	-10.6814
▁ቢዘንብ	-10.6814
▁ትፈልጋለች።	-10.6814
▁ይሻለኛል	-10.6814
▁ደብተር	-10.6814
▁ለብሱዋል።	-10.6814
▁ርቀት	-10.6814
▁በርካታ	-10.6814
▁ስርአት	-10.6814
▁hirmaachuu	-10.6814
▁lafee	-10.6814
▁galeessaa	-10.6814
▁dhandham	-10.6814
▁ሄደች።	-10.6814
▁አልሰራም።	-10.6815
▁አይገባም።	-10.6815
ነጋገሩ	-10.6815
▁barumsichaa	-10.6815
ነግረው	-10.6815
▁ጎዳና	-10.6815
▁seenin	-10.6815
▁ወጣቶች	-10.6815
▁dureessa	-10.6815
▁ጠብቅ።	-10.6816
▁hojjettoota	-10.6816
▁የምትሰራው	-10.6816
▁paayi	-10.6817
▁አገሮች	-10.6818
▁dhoksuu	-10.682
shinii	-10.6821
▁dhukkube	-10.6825
▁gurguruu	-10.6826
▁ተወው።	-10.6827
▁መመገብ	-10.6828
▁አንዴ	-10.6828
▁መታጠብ	-10.6828
▁jiraatta	-10.6842
▁Sa	-10.6847
▁dhaquuf	-10.6851
yaan	-10.6854
▁መጽሃፍ	-10.6855
▁2013	-10.6856
▁qabaman	-10.6856
▁oofaa	-10.6858
▁jalqabuuf	-10.6862
▁kallattiin	-10.6868
▁መጡ።	-10.6868
▁ሶፋው	-10.6875
▁ቢሆንም	-10.6875
▁jiraadhu	-10.6885
▁አደረ	-10.6895
▁አይነቱ	-10.6898
▁አገኘ።	-10.6904
▁በረዶው	-10.6904
ታችሁ	-10.6908
▁ማር	-10.6911
▁ሁኔታዎች	-10.6915
▁bineensotaa	-10.6916
▁eeggadhaa	-10.6918
ገጥ	-10.6921
ttee	-10.6926
ለብስ	-10.6929
እኔ	-10.6933
▁jijjiiru	-10.6944
▁እንዲሁ	-10.6956
ገናኛ	-10.6957
▁qorqorroon	-10.6964
▁መሆንህን	-10.697
▁qabsiis	-10.6978
▁ergama	-10.6979
አእምሮ	-10.6986
መብላት	-10.699
▁caal	-10.6994
▁የመጣው	-10.7005
▁ያለው፧	-10.7005
▁daraaraan	-10.7021
ተናደደ	-10.7059
▁taasis	-10.7068
▁hojiirra	-10.7072
▁dhimmi	-10.7077
ቀየር	-10.7078
ኗ	-10.7082
▁gargaarta	-10.7085
▁bohaartii	-10.7085
▁boombii	-10.7085
▁chokoleetii	-10.7085
▁eebbifam	-10.7085
▁kompiitarri	-10.7085
▁koobilii	-10.7085
▁laafessa	-10.7085
▁maayilii	-10.7085
▁miliyoona	-10.7085
▁ooltummaa	-10.7085
▁soofaa	-10.7085
▁tasgabbii	-10.7085
▁vaazii	-10.7085
▁xiyyeeffachuu	-10.7085
▁ለመጨረስ	-10.7085
▁ለተወሰነ	-10.7085
▁መዝጋት	-10.7085
▁በምሽት	-10.7085
▁በፖስታ	-10.7085
▁ተጽእኖ	-10.7085
▁ቶኪዮ	-10.7085
▁አትክልቶች	-10.7085
▁አይቻልም።	-10.7085
▁አጋጣሚ	-10.7085
▁እመክራለሁ።	-10.7085
▁እደውልልሃለሁ።	-10.7085
▁ከእርሱ	-10.7085
▁ወላጆቹ	-10.7085
▁የታመመ	-10.7085
▁የገንዘብ	-10.7085
▁ገንዘቤ	-10.7085
▁ጮኸ።	-10.7085
▁aansee	-10.7085
▁ወንድሞች	-10.7085
▁ጠብቄ	-10.7085
▁ትችላለች።	-10.7085
▁ምርጡ	-10.7085
▁አትሁን።	-10.7085
▁ውጣ።	-10.7085
▁ይጠብቁ።	-10.7085
▁እንደነበር	-10.7085
▁እየሄድኩ	-10.7085
▁hodhuu	-10.7085
▁ሊገባኝ	-10.7085
▁paartii	-10.7085
▁ጥብቅ	-10.7085
▁ደመና	-10.7085
▁አልመጣም።	-10.7085
▁ማለቴ	-10.7085
▁እጥፍ	-10.7085
▁ምርት	-10.7085
▁yaalne	-10.7085
▁በበጋ	-10.7085
▁የአንድ	-10.7086
▁ስምንት	-10.7086
▁ይሰራሉ።	-10.7086
▁lagni	-10.7086
▁cabsuu	-10.7086
▁እግሩ	-10.7087
▁አድርጌያለሁ።	-10.7087
▁hojjetteetta	-10.7087
▁orma	-10.7087
▁oolle	-10.7088
ቻችሁ	-10.7088
▁jalqabnu	-10.7088
▁አንቺ	-10.7089
▁መሪ	-10.7092
▁gadhee	-10.7093
▁እንዲያደርጉ	-10.7094
▁አለበት	-10.7094
▁banu	-10.7095
▁ትኬት	-10.7096
▁poolii	-10.7099
▁yaalte	-10.7099
▁ማነጋገር	-10.71
▁rafne	-10.7102
▁akkasumas	-10.711
▁ይቻላል፧	-10.7111
▁ለስራው	-10.7115
▁እጅግ	-10.7116
▁qabadhe	-10.7116
ጥሩ	-10.7123
▁jabaat	-10.7129
ደውልልኝ	-10.713
▁ሰውየው	-10.714
▁ጭንቅላት	-10.714
▁በማይ	-10.7141
▁በላ።	-10.7141
▁ilmaan	-10.7154
▁hojiirraa	-10.7162
▁maashiniin	-10.7167
▁fudhattu	-10.7168
አዎ	-10.7174
▁jabeess	-10.7174
▁taphachuuf	-10.7178
▁gubate	-10.7186
▁ሰጠ።	-10.7186
▁lolaa	-10.7186
▁qabsiise	-10.7193
▁ብቻዋን	-10.7209
▁beekti	-10.7209
▁geessuu	-10.7212
▁የቀረ	-10.7217
▁dhume	-10.7223
▁nuffisiis	-10.7226
ምንም	-10.7229
ታጠብ	-10.7232
ባይ	-10.7237
▁cab	-10.7266
▁teenisiin	-10.7268
▁የሚኖሩት	-10.7283
▁jiraachuuf	-10.7311
ናቸው	-10.7323
▁tajaajila	-10.7323
▁አቁም	-10.7329
▁argitan	-10.7331
▁geessi	-10.7359
▁dabarse	-10.7359
ቆርጥ	-10.736
▁waraab	-10.7362
ቁዋረጥ	-10.7362
▁bineensa	-10.7362
▁bitte	-10.7362
▁dagachuu	-10.7362
▁dureeyyii	-10.7362
▁galateeffachuu	-10.7362
▁gammaddan	-10.7362
▁gammadne	-10.7362
▁hubannoo	-10.7362
▁iyye	-10.7362
▁jaallanne	-10.7362
▁manca	-10.7362
▁otoobisii	-10.7362
▁rakkachaa	-10.7362
▁sadaffaa	-10.7362
▁unka	-10.7362
▁ሳንድዊች	-10.7362
▁ብርቱካን	-10.7362
▁ተቀባይነት	-10.7362
▁አልቻልንም።	-10.7362
▁አሳልፏል።	-10.7362
▁አቅጣጫ	-10.7362
▁ካናዳዊ	-10.7362
▁ጠየቀችው።	-10.7362
▁ፖሊሱ	-10.7362
▁badhaasa	-10.7362
▁gabatee	-10.7362
▁ሀይቁ	-10.7362
▁ማዳመጥ	-10.7362
▁በየትኛው	-10.7362
▁አንዳቸውም	-10.7362
▁ውጤቱ	-10.7362
▁ይሰማዎታል፧	-10.7362
▁መዝነብ	-10.7362
▁ማጥመድ	-10.7362
▁ተናግረ	-10.7362
▁fayyi	-10.7362
▁ilaalchisee	-10.7362
▁heey	-10.7362
▁ቀበቶ	-10.7362
▁ብእር	-10.7362
▁narsii	-10.7362
▁አቆመ።	-10.7363
▁በእሳት	-10.7363
▁በጫካ	-10.7363
▁ሃሳቡን	-10.7363
▁ነበርክ።	-10.7363
▁በአስር	-10.7363
▁ቅጂ	-10.7363
▁ማይል	-10.7363
▁ብስክሌቴን	-10.7363
▁dulloomeera	-10.7363
▁የሚሆነው	-10.7364
▁ዘንድ	-10.7364
▁ቤተሰቡ	-10.7364
▁አድርጌዋለሁ።	-10.7364
▁የራቀ	-10.7365
▁በቤቱ	-10.7365
▁ሰጠሁት።	-10.7365
▁yaall	-10.7365
▁ምታት	-10.7366
▁ኪሎ	-10.7367
▁እየጠበቁ	-10.7368
▁saba	-10.7369
▁suuraalee	-10.7372
▁eegdu	-10.7379
▁shaakala	-10.7382
▁dabareen	-10.7382
ነዱ	-10.7387
▁beekuuf	-10.7389
▁ግድግዳ	-10.7391
▁ፍትሃዊ	-10.7412
▁ሰራ።	-10.7416
▁ብቁ	-10.7433
▁dhum	-10.7443
▁ኩኪዎች	-10.7448
▁firii	-10.7464
▁በመኪናው	-10.7475
▁ወንድሙ	-10.7484
▁ጠላት	-10.749
▁barreessite	-10.7491
▁bahe	-10.7491
▁jijjiira	-10.7496
▁እወድ	-10.7497
▁dadhabaa	-10.75
▁kennitu	-10.7505
ነገረኝ	-10.7532
▁የሚሰራው	-10.7538
▁amansiisuu	-10.7552
▁ዋናው	-10.7554
▁baradha	-10.7583
▁dabarsine	-10.7593
▁murtee	-10.7596
▁dambali	-10.7599
▁hubachuun	-10.7599
▁xuuxuun	-10.7599
▁እችላለሁ	-10.7601
▁fr	-10.7602
▁cufi	-10.7602
▁ደክሞኛል	-10.7621
▁guddaadhaan	-10.7621
▁ጤና	-10.7641
▁የማል	-10.7642
ስፈራራ	-10.7642
▁ammoo	-10.7648
▁biyyoota	-10.7648
▁buufatni	-10.7648
▁dargaggoonni	-10.7648
▁dubbanna	-10.7648
▁email	-10.7648
▁fiigd	-10.7648
▁hantuutni	-10.7648
▁haquu	-10.7648
▁ijji	-10.7648
▁milkoofne	-10.7648
▁summii	-10.7648
▁warshaa	-10.7648
▁መጎብኘት	-10.7648
▁ምኞቴ	-10.7648
▁በሌሊት	-10.7648
▁በአደባባይ	-10.7648
▁ተግባቢ	-10.7648
▁አለቦት።	-10.7648
▁አሰቃቂ	-10.7648
▁ውጤታማ	-10.7648
▁ዘግይቼ	-10.7648
▁ይሂዱ።	-10.7648
▁ጩኸት	-10.7648
ታደርገው	-10.7648
▁ሙቀት	-10.7648
▁ረዘም	-10.7648
▁ቅዝቃዜ	-10.7648
▁ተመለሰ።	-10.7648
▁እርዳኝ።	-10.7648
▁መደረግ	-10.7648
▁እጆች	-10.7648
▁fannis	-10.7648
▁አይናገርም።	-10.7648
▁ciisa	-10.7648
▁ነገራት።	-10.7648
▁መፍቻ	-10.7648
▁ፕሮ	-10.7648
▁እስካ	-10.7649
▁diduu	-10.7649
ገረመኝ	-10.7649
▁ስውር	-10.7649
▁ይችል	-10.765
▁hafne	-10.765
▁አደርግ	-10.765
▁Kana	-10.765
▁kiraa	-10.765
▁sodaadheera	-10.7651
▁paantii	-10.7651
▁ባይሆን	-10.7651
▁argachaa	-10.7652
▁ለመጓዝ	-10.7652
▁የደም	-10.7653
▁galche	-10.7654
▁የተመሰረተ	-10.7655
▁ይመስላል፧	-10.7655
▁eessayyuu	-10.7655
▁dhokse	-10.7663
▁baradhu	-10.7666
▁F	-10.7667
▁dhukkubsate	-10.767
▁ሳለሁ	-10.7674
▁qabneef	-10.7675
▁fuudhuuf	-10.7676
▁nuffisiisa	-10.768
cr	-10.7685
▁fiigaa	-10.7698
▁መቆም	-10.7715
▁deebinu	-10.7719
▁baafachuu	-10.7723
▁የምትናገረውን	-10.7724
▁አልኩት።	-10.7725
▁እንዳለኝ	-10.7732
ገደል	-10.7741
▁barreessu	-10.7741
▁ነኝ፧	-10.7742
▁ሆነው	-10.7757
▁xumurama	-10.7759
▁jaamaa	-10.7769
ደወለ	-10.7778
▁aarte	-10.7785
▁shubbisa	-10.779
▁uumama	-10.7815
▁እንባ	-10.7823
▁ሳለ	-10.7823
▁mormii	-10.7824
▁ሽማግሌ	-10.7827
▁ወንድምህ	-10.7839
ሰጠኝ	-10.784
▁barumsa	-10.7845
▁ታውቃለህ	-10.7895
▁gammaduu	-10.79
▁ያደርጋል	-10.7907
▁raawwatame	-10.7915
▁የልብ	-10.7926
ተማመን	-10.7931
▁አጋጥሞ	-10.7934
ላቸው።	-10.7935
▁injifata	-10.7942
▁asoosamni	-10.7942
▁baqate	-10.7942
▁bineensonni	-10.7942
▁bobba	-10.7942
▁deemti	-10.7942
▁dhiirota	-10.7942
▁digdama	-10.7942
▁fuduraa	-10.7942
▁gibira	-10.7942
▁mukkeen	-10.7942
▁muuziyeemii	-10.7942
▁qulfii	-10.7942
▁ህዝቡ	-10.7942
▁ለመጠየቅ	-10.7942
▁ለራስህ	-10.7942
▁መገኘት	-10.7942
▁ረጅሙ	-10.7942
▁ርእሰ	-10.7942
▁ስቴትስ	-10.7942
▁ቀድሞውንም	-10.7942
▁በማቀዝቀዣ	-10.7942
▁በጥቅምት	-10.7942
▁ነበራት።	-10.7942
▁አሳውቀኝ።	-10.7942
▁አግኝቼዋለሁ።	-10.7942
▁እንዳደረገ	-10.7942
▁እንዳደረግ	-10.7942
▁ከጊዜ	-10.7942
▁ከጠረጴዛው	-10.7942
▁ካፖርት	-10.7942
▁ውይይት	-10.7942
▁የሚቀጥለው	-10.7942
▁የፈለከውን	-10.7942
▁የፍቅር	-10.7942
▁ያስፈልጋል።	-10.7942
▁ይያዙ።	-10.7942
▁ariifachuu	-10.7942
▁ህጻን	-10.7942
▁ተረድቻለሁ።	-10.7942
▁እኮራለሁ።	-10.7942
▁ይሄዳሉ።	-10.7942
▁አይኖቼ	-10.7942
▁ከእራት	-10.7942
▁ያስባሉ።	-10.7942
▁ለብሶ	-10.7942
▁ትከሻ	-10.7942
▁ክሬም	-10.7942
▁በአደጋ	-10.7942
▁ለመተኛት	-10.7942
▁ሮጠ።	-10.7942
▁ከወንድ	-10.7942
▁ወረደ።	-10.7942
ዘገይ	-10.7943
▁እንደሚያስቡ	-10.7943
▁ተነሳ።	-10.7943
▁qulqullummaa	-10.7943
▁መወሰን	-10.7943
▁jaalalli	-10.7943
▁በረሃ	-10.7943
▁ይወስዳል፧	-10.7943
▁ነግሬሃለሁ።	-10.7943
▁lammiileen	-10.7944
▁በወር	-10.7944
▁ይጠላል።	-10.7944
▁ስልኬ	-10.7944
▁ሰጠችኝ።	-10.7944
▁ለብሰ	-10.7944
▁kennitaniif	-10.7945
▁ummataa	-10.7946
▁ለምንድን	-10.7947
▁ይሆናሉ።	-10.795
ውያን	-10.7951
▁ለመነጋገር	-10.7952
▁baasa	-10.7954
▁ድሃ	-10.7955
▁አላደርግም።	-10.7956
▁በእጅ	-10.796
▁balaadhaaf	-10.7968
▁ተማሪዎቹ	-10.7968
▁suukaneessaadha	-10.7972
▁የተነሳ	-10.7974
▁eenyuuf	-10.7975
ጓዝ	-10.7982
▁በግል	-10.799
▁sirreessuuf	-10.7992
▁ይዞ	-10.7993
▁hubattu	-10.8002
▁ልቤ	-10.8013
▁jiidh	-10.8024
▁waamu	-10.8028
▁aarri	-10.803
▁eeguuf	-10.8044
ቃላት	-10.8058
▁murteessite	-10.806
▁mallattoon	-10.8088
▁dabaluu	-10.8095
▁ከኔ	-10.8095
ታለል	-10.8111
▁kennuuf	-10.8122
▁የቀረው	-10.8124
▁dhufuuf	-10.8131
ዮች	-10.8146
አሻንጉሊት	-10.8147
መጽሀፍት	-10.8154
▁aarsa	-10.8164
▁yaadde	-10.8176
▁kallattii	-10.8184
▁galii	-10.8187
▁argatan	-10.8188
▁ነዎት	-10.8215
▁ምክንያቱ	-10.8218
▁ibsam	-10.8226
▁qonna	-10.823
akka	-10.8239
▁shubbi	-10.8241
▁ciisi	-10.8245
▁landan	-10.8245
▁ማቀዝቀዣ	-10.8245
▁baqaqsanii	-10.8245
▁boqochuu	-10.8245
▁kilabii	-10.8245
▁qeeq	-10.8245
▁qopheessuu	-10.8245
▁shorbaa	-10.8245
▁soksii	-10.8245
▁ለመክፈል	-10.8245
▁ለዘላለም	-10.8245
▁መምረጥ	-10.8245
▁መቁረጥ	-10.8245
▁መጽሃፎች	-10.8245
▁ማጽዳት	-10.8245
▁ቆየ።	-10.8245
▁በቁጥጥር	-10.8245
▁ተቀምጧል።	-10.8245
▁ትናገራለህ	-10.8245
▁አለመታደል	-10.8245
▁አላደረገም።	-10.8245
▁ኢኮኖሚ	-10.8245
▁እስክሪብቶ	-10.8245
▁እጫወታለሁ።	-10.8245
▁ኮሌጅ	-10.8245
▁የተወለደ	-10.8245
▁ድልድይ	-10.8245
▁ጸሀፊ	-10.8245
▁jilbeenfa	-10.8245
▁በልተሃል፧	-10.8245
▁ካርዶችን	-10.8245
▁ታዲያ	-10.8245
▁ተሰበረ።	-10.8245
▁ውለታ	-10.8245
▁ቀረሁ።	-10.8245
▁እንሞክር።	-10.8245
▁እንደምንችል	-10.8245
▁ማራኪ	-10.8245
▁ለራሴ	-10.8245
▁ማክበር	-10.8245
▁ድግሱ	-10.8245
▁ፈቃድ	-10.8245
▁ላሳይህ	-10.8245
▁ታጋሽ	-10.8245
ሻሻል	-10.8245
▁ሞክረ	-10.8246
▁የሚቻል	-10.8246
▁በምድር	-10.8246
▁ባትሪ	-10.8246
▁በብዙ	-10.8246
▁ይደርሳል።	-10.8246
▁አጠቃ	-10.8246
▁jijjiiramni	-10.8246
▁niiw	-10.8246
▁እረዳ	-10.8246
▁ቼዝ	-10.8246
▁ሙዝ	-10.8246
▁መውጫ	-10.8246
▁የበጋ	-10.8246
▁ብርድ	-10.8246
▁seente	-10.8247
▁simbirroonni	-10.8248
▁ጠጣ።	-10.8248
▁ያደረኩት።	-10.8249
▁qunnamtii	-10.8251
▁የሞተ	-10.8251
▁gaddi	-10.8254
▁ሰበብ	-10.8254
▁ለመጀመር	-10.8254
ፈሰሰ	-10.8254
▁ጨዋታዎችን	-10.8256
▁jiraatin	-10.8257
▁bitanne	-10.826
▁ቁዋንቁዋዎችን	-10.8261
▁ብትሄድ	-10.8262
▁gammachiise	-10.8264
▁dhaggeeffatt	-10.8265
▁otobusiidhaan	-10.8267
ወጣሁ	-10.8269
▁ካሉ	-10.8273
uuraa	-10.8276
▁jetta	-10.8276
▁darbine	-10.8292
▁ሊሆኑ	-10.8292
▁እንዲሰራ	-10.8297
▁bitaatti	-10.83
▁biraatiin	-10.831
▁ስህተቶችን	-10.8316
▁baratta	-10.8326
▁ጥግ	-10.8339
▁godhame	-10.8355
▁mootii	-10.8371
▁ሳያ	-10.8388
ጠየቅኩ	-10.8388
▁miidhaan	-10.8393
▁obs	-10.8403
▁uwwifame	-10.8404
ኝም፧	-10.8407
▁baaburaan	-10.8427
▁hafu	-10.8447
▁ታች	-10.8454
▁dhib	-10.8455
▁እንድረዳ	-10.8475
▁የምትናገረው	-10.8484
▁hojjetamu	-10.8493
ibsiifat	-10.8497
▁beekte	-10.853
▁ለእርዳታ	-10.8552
ተኞች	-10.8555
▁አስተማ	-10.8557
▁liqeessi	-10.8558
▁barbaachifne	-10.8558
▁dargaggoota	-10.8558
▁deddeebi	-10.8558
▁dhiphisu	-10.8558
▁dhugdu	-10.8558
▁dhugne	-10.8558
▁egeree	-10.8558
▁falfal	-10.8558
▁gammaddu	-10.8558
▁icciitii	-10.8558
▁jaallanna	-10.8558
▁kaameraa	-10.8558
▁keessummoota	-10.8558
▁marsariitii	-10.8558
▁mirkaneessa	-10.8558
▁qalbii	-10.8558
▁tokkicha	-10.8558
▁waldhabdee	-10.8558
▁yommuu	-10.8558
▁ለመልቀቅ	-10.8558
▁ልትረዳኝ	-10.8558
▁ሙዚየም	-10.8558
▁ማስረጃ	-10.8558
▁ማውጣት	-10.8558
▁ቀርፋፋ	-10.8558
▁በተመሳሳይ	-10.8558
▁በከንቱ	-10.8558
▁በዝናብ	-10.8558
▁በየሳምንቱ	-10.8558
▁ተዋናይ	-10.8558
▁አልነበረብህም።	-10.8558
▁እንደማደርገው	-10.8558
▁እየዘነበ	-10.8558
▁ከጓደኞቼ	-10.8558
▁ያረጋግጡ።	-10.8558
▁ያስፈልገናል	-10.8558
▁ያደርገዋል።	-10.8558
▁ይባላል፧	-10.8558
▁ጓደኝነት	-10.8558
▁ጠንክሬ	-10.8558
▁ጭማቂ	-10.8558
▁ለማሳመን	-10.8558
▁በግማሽ	-10.8558
▁ቤተሰቤ	-10.8558
▁filadhu	-10.8558
▁እተኛለሁ።	-10.8558
▁ሊዘንብ	-10.8558
▁መስኮት	-10.8558
▁አምኗል።	-10.8558
▁ለመጠጣት	-10.8558
▁arganna	-10.8558
▁ከአልጋ	-10.8558
▁ሀብት	-10.8558
▁ፒዛ	-10.8558
▁ሰአቴ	-10.8558
▁mufadh	-10.8558
▁ከቤተ	-10.8558
▁ይልሃል፧	-10.8558
▁የንግድ	-10.8558
▁ሰማዩ	-10.8558
▁lolu	-10.8558
▁ውድቀት	-10.8558
ስተካከ	-10.8558
▁ትንሹ	-10.8558
▁ከፊት	-10.8558
▁በደስታ	-10.8558
▁mooraa	-10.8558
▁ሜዳ	-10.8559
ሞከርክ	-10.8559
▁ገባች።	-10.8559
▁seensa	-10.8559
ሰቃየ	-10.8559
ስማሙ	-10.8559
ዘምር	-10.8559
▁Waa	-10.856
▁sodaadhu	-10.8561
▁C	-10.8563
▁yaadachiisa	-10.8564
▁እያጠና	-10.8564
▁አደረግ	-10.8564
▁eegeen	-10.8565
▁ወጥቱዋል።	-10.8565
▁jedhiin	-10.8567
▁ለማቆም	-10.8569
▁ብረት	-10.8571
▁ትሆናለህ፧	-10.8575
▁እዚ	-10.8581
▁kabajuuf	-10.8583
ጠበቁ	-10.8584
▁ካሉት	-10.8584
ብራራ	-10.8592
▁fuulduraatti	-10.8593
▁sirnaan	-10.8594
▁eegduu	-10.8595
▁keessattuu	-10.8597
▁የመጣሁት።	-10.8607
▁awwaalcha	-10.8612
▁ijaarame	-10.8614
▁jiraattu	-10.8621
▁ስሄድ	-10.8627
▁gaafata	-10.8628
aanaadha	-10.8633
▁beeksisuu	-10.8644
ጣቴ	-10.8662
▁mootummaan	-10.8663
▁hubatta	-10.8664
▁kaayyoon	-10.8665
▁cabsa	-10.8667
▁gaafatamaa	-10.8671
▁barata	-10.8675
▁gocha	-10.8685
▁በሞት	-10.8701
▁beek	-10.8729
▁qaxxaamuraa	-10.873
▁sirbu	-10.8754
▁sodaatte	-10.876
▁ገዛች	-10.877
ስብበት	-10.8774
መምጣት	-10.8783
▁ቦታዎች	-10.8786
▁ciise	-10.879
▁dhukkubsadh	-10.8803
▁adaadaa	-10.8819
▁kaasaa	-10.8822
▁jiraanna	-10.8832
▁ቤቱዋ	-10.8832
▁kaffalu	-10.8834
▁ሌባው	-10.8855
▁rakki	-10.8871
▁dorgom	-10.8875
አመሰግናለሁ	-10.888
:	-10.888
▁የከተማ	-10.888
▁alarjii	-10.888
▁balleessa	-10.888
▁barnoonni	-10.888
▁barreeffamni	-10.888
▁cimsitee	-10.888
▁dheerinni	-10.888
▁dirree	-10.888
▁gargaarte	-10.888
▁gargaartu	-10.888
▁jaakkeetii	-10.888
▁kiyyoo	-10.888
▁mudachuu	-10.888
▁mudhii	-10.888
▁nageenyi	-10.888
▁ogeessi	-10.888
▁qabde	-10.888
▁qopheessi	-10.888
▁ሁላችሁንም	-10.888
▁ለመስጠት	-10.888
▁ለመውሰድ	-10.888
▁ምስጋና	-10.888
▁ሱፐርማርኬት	-10.888
▁ሽልማት	-10.888
▁በመሆኔ	-10.888
▁በመስኮቱ	-10.888
▁በሳጥኑ	-10.888
▁በቶኪዮ	-10.888
▁ታስታውሳለህ፧	-10.888
▁ንገረው።	-10.888
▁ንገሩኝ።	-10.888
▁አሉዎት፧	-10.888
▁አመለካከት	-10.888
▁አስገራሚ	-10.888
▁አሸንፏል።	-10.888
▁የሚጀምረው	-10.888
▁የምትኖረው	-10.888
▁ዩኒቨርሲቲ	-10.888
▁ጉዳዮች	-10.888
▁ጓደኞቹ	-10.888
▁ፕሮጀክት	-10.888
▁ምልክቶች	-10.888
▁ቡድኑ	-10.888
▁እየተካሄደ	-10.888
▁ያሳዝናል።	-10.888
▁hariiroo	-10.888
▁በሌሎች	-10.888
▁አላደርገውም።	-10.888
▁ይፈልጉ	-10.888
▁keelloo	-10.888
▁ተመለከትኩ።	-10.888
▁መጠንቀቅ	-10.888
▁አልፈራም።	-10.888
▁ነገረችው።	-10.888
▁ድካም	-10.888
▁የማወቅ	-10.8881
▁የሚፈልገውን	-10.8881
▁ግጥም	-10.8881
▁shantama	-10.8881
▁sochoos	-10.8881
▁የኪስ	-10.8881
▁ያረጀ	-10.8881
▁ተናገር።	-10.8881
▁rifadh	-10.8881
▁qulqulleessuun	-10.8881
▁መላክ	-10.8881
▁ሃያ	-10.8881
▁ጫካ	-10.8881
▁shawaariin	-10.8882
▁ወድቁዋል	-10.8882
▁ወሰንኩ።	-10.8882
▁ናፈቀኝ።	-10.8883
▁ጭስ	-10.8884
▁ተረድተ	-10.8885
▁booji	-10.8885
ይከሰት	-10.8887
ቆጠር	-10.8887
▁ይገባኛል።	-10.8888
▁እንሆናለን።	-10.8889
▁ለመጠበቅ	-10.8891
▁የለውም	-10.8892
▁poostaadhaan	-10.8892
▁rasaasaan	-10.8893
▁dhugumayyuu	-10.8894
▁አብሮ	-10.8896
▁ክፉ	-10.8897
▁መከተል	-10.8902
▁ቀዶ	-10.8905
▁ቢጫ	-10.8908
ንኳኳ	-10.891
▁ፈገግታ	-10.8912
▁ግብር	-10.8913
▁amansiisuuf	-10.8913
ደረስኩ	-10.8915
▁ጎማ	-10.8917
▁ከማንም	-10.8923
▁xiyyaaraatti	-10.8924
▁dubbiseera	-10.8929
▁deebisuuf	-10.8932
▁በከተማው	-10.8933
▁የሚናገር	-10.896
▁እንደማል	-10.8969
▁dubbisne	-10.9001
▁sodaattu	-10.9012
▁walga	-10.9048
▁rukutte	-10.9061
▁gurgurama	-10.909
▁kutuu	-10.91
▁ibsu	-10.9103
▁fudhatta	-10.9107
▁qara	-10.9108
ታየው	-10.9121
▁simbirroo	-10.9126
▁imaluu	-10.9159
ነቴ	-10.9164
▁hawaa	-10.9172
▁አለብኝ	-10.9175
▁እንሂድ	-10.9179
▁ለስራ	-10.9186
▁hojj	-10.9205
▁supha	-10.9213
ኮምፒውተሬ	-10.9214
▁Maariyaam	-10.9214
▁dhibbeentaa	-10.9214
▁dukkaanni	-10.9214
▁eeggachaa	-10.9214
▁galateeffadha	-10.9214
▁haguug	-10.9214
▁muummee	-10.9214
▁waliigalaa	-10.9214
▁መንስኤ	-10.9214
▁መጽሄት	-10.9214
▁ሬስቶራንት	-10.9214
▁ቁልፎቼ	-10.9214
▁በእርስዎ	-10.9214
▁አምልጦ	-10.9214
▁አታድርግ።	-10.9214
▁እነማን	-10.9214
▁እንደሚያደርግ	-10.9214
▁ከትናንት	-10.9214
▁የምናገረው	-10.9214
▁የውሸት	-10.9214
▁የዝናብ	-10.9214
▁ይምረጡ።	-10.9214
▁ጸጉሯ	-10.9214
ጾ	-10.9214
▁angafaa	-10.9214
▁boqodh	-10.9214
▁kaazinaa	-10.9214
▁መለየት	-10.9214
▁ስሜታዊ	-10.9214
▁በቲቪ	-10.9214
▁ነበረን።	-10.9214
▁አድርገሃል	-10.9214
▁yaaltu	-10.9214
▁ተነሳሁ።	-10.9214
▁የሚያውቀው	-10.9214
▁argamsiis	-10.9214
▁18	-10.9214
▁እጥረት	-10.9214
▁labs	-10.9214
▁መልሼ	-10.9214
▁አበቦቹ	-10.9214
▁feetan	-10.9214
▁በአየር	-10.9214
ጸጸት	-10.9214
▁እየሮጠ	-10.9214
▁የምትችል	-10.9214
▁ጣልቃ	-10.9214
▁safar	-10.9214
▁ይበሉ።	-10.9214
▁argannu	-10.9214
▁sirni	-10.9214
▁አሳልፌያለሁ።	-10.9215
▁የዚያ	-10.9215
▁እየሄድን	-10.9215
▁hinaaffaa	-10.9215
▁doolii	-10.9215
▁banuun	-10.9215
▁ይፈራል።	-10.9216
ster	-10.9216
ወስደው	-10.9216
▁godhachuu	-10.9217
▁jalqabde	-10.9218
▁ካልሲ	-10.9218
ሆናችሁ	-10.9219
▁ንገረኝ፧	-10.922
▁መጥቱዋል።	-10.922
▁መቆጣጠር	-10.922
▁ትመጣለህ	-10.9221
ዘረጋ	-10.9221
▁አጋጥሞኝ	-10.9223
▁dhimmicha	-10.9224
▁ይጀምራል።	-10.9225
▁ilaaleen	-10.9225
▁simata	-10.9226
▁እንዳለባት	-10.9226
▁በፓርቲው	-10.9226
ለወጠ	-10.9227
▁haadda	-10.923
▁ይስጡ	-10.9231
▁ገቢ	-10.9234
▁ሄዳ	-10.9234
▁dheerata	-10.9236
▁yaadattu	-10.9238
▁የተናደደ	-10.9247
▁badeera	-10.9248
▁ተጠያቂው	-10.925
▁በእሱዋ	-10.9253
▁እንድትመጣ	-10.9256
▁dhiistee	-10.9258
▁ቢሮዬ	-10.926
▁tajaajil	-10.9261
▁የቀድሞ	-10.9267
dheera	-10.9272
▁simbirroon	-10.9273
▁የሚፈልግ	-10.928
▁ሲመጣ	-10.9286
▁እንደሌለው	-10.9296
▁ጥላ	-10.9301
▁dhiira	-10.9306
▁kutachuu	-10.9338
▁co	-10.9349
▁mormi	-10.935
▁keetiif	-10.9351
▁way	-10.9353
10	-10.9355
▁xumurteetta	-10.9392
▁ትላንትና	-10.9404
ሰበር	-10.9422
▁quufne	-10.9432
▁kaasa	-10.9435
▁halkanii	-10.9446
መጻህፍት	-10.9461
▁kabajuu	-10.9471
ገናኘው	-10.9482
ብሩ	-10.9498
▁ቀኑ	-10.9512
▁ያልከው	-10.9514
▁ተጠያቂ	-10.9521
▁ስጠኝ	-10.9524
▁ስህተ	-10.953
▁ሃይ	-10.9538
▁ተመለከተ	-10.954
▁obbo	-10.9545
ላደርገው	-10.9559
ፐ	-10.9559
መሰብሰብ	-10.9559
ቭ	-10.9559
▁bilcheessa	-10.9559
▁dhiphisa	-10.9559
▁doktara	-10.9559
▁dubbatti	-10.9559
▁gowwoomsaa	-10.9559
▁inshuraansii	-10.9559
▁interneetii	-10.9559
▁jennu	-10.9559
▁kasaaraa	-10.9559
▁kirkirri	-10.9559
▁kurnanii	-10.9559
▁paaris	-10.9559
▁qeensa	-10.9559
▁riqicha	-10.9559
▁taajjabbii	-10.9559
▁yakki	-10.9559
▁ህክምና	-10.9559
▁ህገወጥ	-10.9559
▁መዝፈን	-10.9559
▁ተሞክሮ	-10.9559
▁ተጸጽቻለሁ።	-10.9559
▁ታሪኮች	-10.9559
▁አልበላሁም።	-10.9559
▁አትርሳ።	-10.9559
▁አንዳንዴ	-10.9559
▁እደውላለሁ።	-10.9559
▁ከከተማ	-10.9559
▁የቴኒስ	-10.9559
▁ያሰብኩት	-10.9559
▁ይገርመኛል።	-10.9559
▁ጀግና	-10.9559
▁ጃክሰን	-10.9559
▁ገመዱን	-10.9559
▁ጉጉት	-10.9559
▁ጸደይ	-10.9559
▁dhoqqee	-10.9559
▁ilaaltu	-10.9559
▁መኪኖች	-10.9559
▁አለርጂ	-10.9559
▁ጠባቂ	-10.9559
▁teeny	-10.9559
▁መጨመር	-10.9559
▁ሞዴል	-10.9559
▁ጣሪያው	-10.9559
▁ሀይቅ	-10.9559
▁ማሰሪያ	-10.9559
▁cilee	-10.9559
▁goona	-10.9559
▁ማስቀመጥ	-10.9559
▁ይወጣል።	-10.9559
ነግራት	-10.9559
▁mormu	-10.9559
▁መቀባት	-10.9559
▁ዘጠኝ	-10.9559
▁ትኬቶች	-10.9559
▁baandii	-10.9559
▁ተቀመጥ።	-10.9559
▁guututti	-10.9559
▁የተረፈ	-10.9559
▁ተጋብ	-10.9559
▁የሚችሉት	-10.9559
▁duuti	-10.9559
▁faransaayitti	-10.956
▁guddadhe	-10.9561
ገለጽ	-10.9561
▁ተሳስቻለሁ	-10.9561
▁fakkaatte	-10.9562
▁ሃላፊነት	-10.9563
ረዱት	-10.9563
▁አሉህ፧	-10.9564
▁ጠባብ	-10.9565
▁ሞተር	-10.9565
▁ሰጠችው።	-10.9565
▁miidhamne	-10.9568
▁ለማመን	-10.957
▁ክብር	-10.957
▁ነጠላ	-10.9571
▁ሃሳብህን	-10.9573
▁አጥቱዋል።	-10.9574
▁kaabaa	-10.9574
▁አመቴ	-10.9575
▁መለያ	-10.9581
▁ሰፈር	-10.9581
▁gaafatan	-10.9589
▁በአስራ	-10.9589
▁qophoof	-10.959
በታለሁ።	-10.9591
▁ዝቅ	-10.9596
▁achiis	-10.9597
▁ፈሪ	-10.9602
▁murteessi	-10.9603
▁እያለሁ	-10.9606
▁qabamuu	-10.961
▁sirratti	-10.9618
▁nurra	-10.962
▁ነካ	-10.9649
▁jijjiiruuf	-10.9659
▁አለቃዬ	-10.9693
taniiru	-10.971
▁fidu	-10.9737
▁jalqabne	-10.9767
ረሳው	-10.9783
▁አባቱዋ	-10.9784
▁አለኝ	-10.982
▁ilaalama	-10.9832
▁ስህተቶች	-10.9836
▁sodaadhe	-10.9846
አይ፣	-10.9862
▁አትችልም	-10.9881
▁ፍላጎ	-10.989
▁shaakal	-10.9891
ጧ	-10.9913
ቁዋርጥ	-10.9916
ናደርገው	-10.9916
ኢንዱስትሪ	-10.9916
▁adaraa	-10.9916
▁ariifachiisaa	-10.9916
▁asirraa	-10.9916
▁awwaara	-10.9916
▁cheekii	-10.9916
▁ciccit	-10.9916
▁dhaabbanni	-10.9916
▁dhiheessa	-10.9916
▁dhiigni	-10.9916
▁dinagdee	-10.9916
▁gaddisiisu	-10.9916
▁geenyu	-10.9916
▁liqeessa	-10.9916
▁mudachaa	-10.9916
▁narvii	-10.9916
▁qopheesse	-10.9916
▁saaxilam	-10.9916
▁sheelfii	-10.9916
▁sirboota	-10.9916
▁tiyoorii	-10.9916
▁uffatu	-10.9916
▁ለማጥፋት	-10.9916
▁ሌሎቹ	-10.9916
▁ማስገባት	-10.9916
▁ማቆየት	-10.9916
▁ማተኮር	-10.9916
▁በመንገዱ	-10.9916
▁በጦርነቱ	-10.9916
▁በጭንቅ	-10.9916
▁ቡድናችን	-10.9916
▁ተቃውሞ	-10.9916
▁አለመግባባት	-10.9916
▁አምጡልኝ።	-10.9916
▁እራሱዋን	-10.9916
▁እስከማውቀው	-10.9916
▁ከረጅም	-10.9916
▁ወታደሮቹ	-10.9916
▁የምንኖረው	-10.9916
▁የጎደለው	-10.9916
▁ያስፈልግዎታል፧	-10.9916
▁ይይዛል።	-10.9916
▁ፕሮግራም	-10.9916
▁agarsiifte	-10.9916
▁daawwannaa	-10.9916
▁fardi	-10.9916
▁hoteelli	-10.9916
▁piknikii	-10.9916
▁ለውጦች	-10.9916
▁ቅናሽ	-10.9916
▁ተነጋገርን።	-10.9916
▁አልረሳውም።	-10.9916
▁የወይን	-10.9916
▁ጥርጣሬ	-10.9916
▁ispeen	-10.9916
▁kuusaa	-10.9916
▁መደብሩ	-10.9916
▁በማየቴ	-10.9916
▁ተናግሬ	-10.9916
▁ይሁኑ።	-10.9916
▁አለብህ፧	-10.9916
▁አይገባኝም።	-10.9916
▁haleel	-10.9916
▁አድርጉ	-10.9916
▁ደሴት	-10.9916
▁ፓርኩ	-10.9916
▁አላልኩም።	-10.9916
▁በእጥፍ	-10.9916
▁kantiibaa	-10.9916
▁ሰክሮ	-10.9916
▁haalluu	-10.9916
▁ይበላል።	-10.9916
▁ሰበረ።	-10.9916
▁አልናገርም።	-10.9916
▁መሰረት	-10.9916
▁በሰላም	-10.9916
▁የለህም።	-10.9916
▁ዘጋው።	-10.9916
▁ይሆን፧	-10.9916
▁ወደድኩት።	-10.9916
▁የላትም።	-10.9916
▁hiikkaa	-10.9916
▁ዛፉ	-10.9916
▁በትንሽ	-10.9916
▁የአባቴ	-10.9916
▁ኑሮ	-10.9916
▁አሜሪካውያን	-10.9916
▁ቀረ።	-10.9917
▁አወጣ።	-10.9917
▁gaafatin	-10.9917
ወርድ	-10.9917
▁500	-10.9917
▁gaafachaa	-10.992
▁biyyattii	-10.992
▁harkifadhe	-10.992
▁ልትነግረኝ	-10.9921
▁ውድድር	-10.9924
▁ጦርነቱ	-10.9924
▁በምት	-10.9925
▁አላውቀውም።	-10.9927
▁faar	-10.9928
▁qaaliidha	-10.9933
▁ማረፍ	-10.9935
▁የሌለው	-10.994
▁ንቁ	-10.9941
▁ግዛ	-10.9943
▁ፈንታ	-10.9948
▁ልጠይቅህ፧	-10.9949
▁እስክት	-10.9952
▁ዙሪያውን	-10.9952
ሰጡኝ	-10.996
▁hawaasa	-10.9963
▁አውጣ	-10.9965
ታመም	-10.9975
▁fagootti	-10.9977
▁ንብ	-10.9979
ከታተል	-10.9985
▁deebift	-11.0008
መስሉ	-11.0023
▁baname	-11.0039
▁dadhabne	-11.0089
▁dhaabu	-11.0099
▁fayyu	-11.0105
▁እርሱ	-11.0157
▁harkifatte	-11.0173
▁ciniiname	-11.0181
▁dabarsu	-11.0188
ሆስፒታል	-11.0189
▁እውነቱ	-11.0204
▁ንግግ	-11.0219
ከታተ	-11.0228
▁ማረፊያ	-11.0249
▁waaqayyo	-11.0251
▁beel	-11.0266
▁galtu	-11.0281
▁ፈረንሳይ	-11.0283
ibsiisa	-11.0286
ችኹዋል።	-11.0286
▁aksiyoona	-11.0286
▁amansiifne	-11.0286
▁araada	-11.0286
▁daawwitii	-11.0286
▁dhohinsa	-11.0286
▁didde	-11.0286
▁gaggeeffama	-11.0286
▁gargaarre	-11.0286
▁madaalawaa	-11.0286
▁miseensa	-11.0286
▁mukti	-11.0286
▁poolisoota	-11.0286
▁ramad	-11.0286
▁sabbata	-11.0286
▁shamarree	-11.0286
▁yunivarsiitii	-11.0286
▁ህሊና	-11.0286
▁ህጻናት	-11.0286
▁መምሰል	-11.0286
▁ማምጣት	-11.0286
▁ማስታወስ	-11.0286
▁ሰራተኞቹ	-11.0286
▁በስህተት	-11.0286
▁በከፍተኛ	-11.0286
▁ተቸግሬ	-11.0286
▁አስቀመጠ።	-11.0286
▁አታድርገኝ።	-11.0286
▁አትፍቀድ።	-11.0286
▁አድርገናል።	-11.0286
▁እንነጋገራለን።	-11.0286
▁እንወዳለን።	-11.0286
▁እከፍላለሁ	-11.0286
▁እጨነቃለሁ።	-11.0286
▁ከእስር	-11.0286
▁ክሬዲት	-11.0286
▁ዘነበ።	-11.0286
▁የህዝብ	-11.0286
▁ይጻፉ።	-11.0286
▁ድልድዩ	-11.0286
▁ጭንቀት	-11.0286
▁ፍቀድልኝ።	-11.0286
ዌ	-11.0286
▁barbaadi	-11.0286
▁liqims	-11.0286
▁ቆርጬ	-11.0286
▁በአእምሮዬ	-11.0286
▁በአዲሱ	-11.0286
ቷ	-11.0286
▁kibbaa	-11.0286
▁መንፈስ	-11.0286
▁ክላውስ	-11.0286
▁ደራሲ	-11.0286
▁taphichi	-11.0286
▁ማንኪያ	-11.0286
▁አላወቀም	-11.0286
▁አልፈቅድም።	-11.0286
▁አዘጋጀ	-11.0286
▁ኪሳራ	-11.0286
▁ደሞዝ	-11.0286
▁dadhabbiin	-11.0286
▁አለዎት፧	-11.0286
▁16	-11.0286
▁አያስብም።	-11.0286
▁አድርጋ	-11.0286
▁jimaata	-11.0286
aansoo	-11.0286
▁ደንቦች	-11.0286
▁toora	-11.0286
▁ቀለበት	-11.0286
▁ነዳጅ	-11.0286
▁maasii	-11.0286
▁konkolaachisuun	-11.0286
▁qulqulleesse	-11.0286
▁የማይችል	-11.0286
▁ቆሙዋል።	-11.0286
▁namicha	-11.0286
▁አጽድ	-11.0286
▁zoo	-11.0286
▁ጥናት	-11.0286
▁ታየ።	-11.0287
▁በቡና	-11.0287
▁imalli	-11.0287
▁ቆሞ	-11.0287
ቃጠል	-11.0287
▁salphina	-11.0287
▁teesse	-11.0287
▁ያደረጉት	-11.0287
▁ልደት	-11.0288
▁amantu	-11.0288
▁ተናገረች።	-11.0288
▁qajeelch	-11.0289
▁ልትነግሩኝ	-11.0289
▁maraatummaa	-11.0289
▁eegamne	-11.029
▁ተሳስቱዋል	-11.029
▁maxxanfam	-11.029
▁የራሴ	-11.0292
▁ይዤ	-11.0292
▁torbaatti	-11.0293
▁እያሰቡ	-11.0293
▁መዝለል	-11.0294
▁እንድታውቅ	-11.0294
▁dhaabbattee	-11.0294
▁kudhanitti	-11.0294
ዘፈነ	-11.0296
▁dull	-11.0297
▁እንደሚመስል	-11.0297
▁maraattee	-11.0298
▁ለመጻፍ	-11.0301
imaatti	-11.0301
▁waggootaaf	-11.0302
▁dhukkub	-11.0305
▁qonnaan	-11.0305
▁Ani	-11.0307
▁qulqullaa	-11.0307
ደርሱ	-11.0313
▁godhamu	-11.0315
▁tookiyootti	-11.0319
ቆመው	-11.0327
▁የበዛበት	-11.0328
▁አነጋገር	-11.0331
▁galeera	-11.0334
▁ራቁ	-11.0334
▁እህቱ	-11.0336
▁አርብ	-11.0342
▁አይተናል።	-11.0351
▁kaffaluuf	-11.0352
ሳካለት	-11.0376
▁የነበረ	-11.0398
tion	-11.0402
▁aarsu	-11.0407
▁mall	-11.0412
ተባበ	-11.042
▁darbate	-11.0448
▁ድብ	-11.0477
▁ጭንቅላ	-11.0541
▁sodaachisa	-11.0545
አውሮፓ	-11.0572
ኛለህ	-11.06
▁callise	-11.0605
▁kunuunsit	-11.0607
▁አታውቅም	-11.0637
▁የለኝም	-11.0641
▁rasaasa	-11.0655
▁ታደርጋለህ	-11.0658
ቶቼን	-11.0668
ኚ	-11.0671
ፕሬዚዳንቱ	-11.0671
▁abjoodh	-11.0671
▁fagaadhaa	-11.0671
▁guutumaan	-11.0671
▁iswiiterii	-11.0671
▁jaallatte	-11.0671
▁kalaqa	-11.0671
▁paakeejii	-11.0671
▁qormaanni	-11.0671
▁yuunivarsiitii	-11.0671
▁ለአመታት	-11.0671
▁ላደርግልህ	-11.0671
▁ልቦለድ	-11.0671
▁ልታደርግ	-11.0671
▁መጮህ	-11.0671
▁መጻህፍቱ	-11.0671
▁ርቦኛል።	-11.0671
▁ሶስተኛ	-11.0671
▁በትራፊክ	-11.0671
▁በኩሽና	-11.0671
▁ባርኔጣ	-11.0671
▁ቪዲዮ	-11.0671
▁ተምሬያለሁ።	-11.0671
▁ተቃርቡዋል።	-11.0671
▁ታመመ።	-11.0671
▁ታምናለህ፧	-11.0671
▁አሸንፈ	-11.0671
▁አጥብቄ	-11.0671
▁እንቁላሎች	-11.0671
▁እየፈለገ	-11.0671
▁እያነበብኩ	-11.0671
▁ከማድረግ	-11.0671
▁ከቦስተን	-11.0671
▁ከጣቢያው	-11.0671
▁የጸጉር	-11.0671
▁ያስከፍላል፧	-11.0671
▁ዲግሪ	-11.0671
▁ጠንክረህ	-11.0671
▁ፖሊሲ	-11.0671
▁biyyee	-11.0671
▁ትንበያ	-11.0671
▁እየተማርኩ	-11.0671
▁ፋብሪካ	-11.0671
▁መንደር	-11.0671
▁ተሳፋሪ	-11.0671
▁ትገኛለች።	-11.0671
▁እንሰራለን።	-11.0671
▁ኪራይ	-11.0671
▁ጠፍተዋል።	-11.0671
▁ትሰራለች።	-11.0671
▁አያመጣም።	-11.0671
▁gommaa	-11.0671
▁ናችሁ።	-11.0671
▁እየተሰማኝ	-11.0671
▁ያጥፉ።	-11.0671
▁fidde	-11.0671
▁ከቤቴ	-11.0671
▁አባላት	-11.0671
▁rifachuu	-11.0671
▁በቢሮ	-11.0671
▁የለህም፧	-11.0671
▁እምቢ	-11.0671
▁ፓስፖርት	-11.0671
▁ተኝቶ	-11.0671
▁ይገኛል።	-11.0671
▁በሰማይ	-11.0671
:00	-11.0671
▁ቁማር	-11.0671
▁ግትር	-11.0671
▁በአመት	-11.0671
▁ያገኛል።	-11.0671
▁rifate	-11.0671
▁ታምሜአለሁ።	-11.0671
▁የገባውን	-11.0671
▁ፎጣ	-11.0671
▁የቡና	-11.0671
▁ያምናል።	-11.0672
▁የምበላው	-11.0672
▁ለምሳ	-11.0672
▁saddeetitti	-11.0672
▁calliste	-11.0673
▁ደስተኞች	-11.0673
▁dogoggorri	-11.0674
▁አግኝተናል።	-11.0674
▁እንደማትፈልግ	-11.0674
▁የዋህ	-11.0675
▁ጆን	-11.0675
▁አንደኛ	-11.0675
▁12	-11.0675
▁hafte	-11.0677
▁gariin	-11.0678
▁ለእርዳታዎ	-11.0678
▁ይጠብቃ	-11.0679
▁እየበላሁ	-11.0679
▁xuuxa	-11.068
▁አጥተናል።	-11.0681
▁hiikni	-11.0683
▁tokkottillee	-11.0685
▁gaafatu	-11.0688
▁በልቼ	-11.0689
▁በአቅራቢያው	-11.0691
▁sodaatu	-11.0701
▁የሚረዳ	-11.0702
▁banamu	-11.0704
▁አፍታ	-11.0705
▁maraadh	-11.0709
▁እንደሄደ	-11.0713
▁hoolaa	-11.0717
▁የምትለው	-11.0718
riyaa	-11.0724
▁13	-11.0732
ያወሩ	-11.074
40	-11.0746
▁dirqam	-11.0784
▁fannifam	-11.0879
th	-11.0957
▁shanii	-11.0998
▁deebisu	-11.1017
▁ilaa	-11.1021
ባረር	-11.1026
▁አስተያየ	-11.1037
ልኩህ	-11.1049
▁injifann	-11.1053
▁ሆና	-11.1066
▁ነግሬ	-11.107
ኡ	-11.1071
▁ayiskiriimii	-11.1071
▁bilisummaa	-11.1071
▁chokolaataa	-11.1071
▁dhaggeeffann	-11.1071
▁iyyi	-11.1071
▁karoorfanne	-11.1071
▁kushina	-11.1071
▁mirkaneessi	-11.1071
▁qacaruu	-11.1071
▁qoonqa	-11.1071
▁shaampoo	-11.1071
▁sirreeffam	-11.1071
▁ummanni	-11.1071
▁ሆቴሉ	-11.1071
▁ለሽርሽር	-11.1071
▁ሚስጥራዊ	-11.1071
▁ሞቃታማ	-11.1071
▁ሽጉጡን	-11.1071
▁በአውሮፕላን	-11.1071
▁በዝርዝሩ	-11.1071
▁በዝርዝር	-11.1071
▁በጥይት	-11.1071
▁ቡዋንቡዋ	-11.1071
▁ብታደርግ	-11.1071
▁ትኩሳት	-11.1071
▁አመጋገብ	-11.1071
▁አሳልፈናል።	-11.1071
▁አንዳንዶቹ	-11.1071
▁አግዳሚ	-11.1071
▁እንዳታደርግ	-11.1071
▁ወረወረ	-11.1071
▁የባቡር	-11.1071
▁የአውቶቡስ	-11.1071
▁ፎቶግራፍ	-11.1071
ibsiise	-11.1071
▁degger	-11.1071
▁qusadh	-11.1071
▁qusat	-11.1071
▁አትክልት	-11.1071
▁የተናገርከው	-11.1071
▁የደከመ	-11.1071
▁ያለማቁዋረጥ	-11.1071
▁ዳግም	-11.1071
▁fuulli	-11.1071
▁ለጉዞ	-11.1071
▁አልሄድኩም።	-11.1071
▁እየቀነሰ	-11.1071
▁ፓሪስ	-11.1071
▁መሳቢያ	-11.1071
▁ተግባር	-11.1071
▁አንጻር	-11.1071
▁እወጣለሁ።	-11.1071
▁ወስዷል።	-11.1071
▁babal	-11.1071
▁ይጠጣል።	-11.1071
▁ሮጥኩ።	-11.1071
▁ሳሙና	-11.1071
▁ቀልዶች	-11.1071
▁እንደማትችል	-11.1071
▁እንጀምር።	-11.1071
▁ይበላሉ።	-11.1071
▁simannaa	-11.1071
▁አልደረሰም።	-11.1071
▁የሚዘንብ	-11.1071
▁gumaach	-11.1071
▁ዝጋ።	-11.1071
▁መመልከት	-11.1071
▁ግሩም	-11.1071
▁ifni	-11.1071
▁እንደማይችል	-11.1071
ተዋወቀ	-11.1071
▁መብራት	-11.1071
▁sodaachisu	-11.1071
▁ለማሰብ	-11.1071
▁qodaa	-11.1071
▁የሚችለው	-11.1071
▁እስቲ	-11.1071
▁ክለብ	-11.1071
ሰለቸኝ	-11.1071
▁ዘይት	-11.1071
▁reeb	-11.1071
▁ጥቃት	-11.1071
▁አሰራር	-11.1071
▁ለንደን	-11.1071
▁ጥፋቱ	-11.1071
▁ጌታ	-11.1071
▁adabbii	-11.1071
ገልጽ	-11.1071
▁dhiisinaa	-11.1071
▁ማሽኑ	-11.1072
ትውልድ	-11.1072
▁መራቅ	-11.1072
ጎተት	-11.1072
▁ገባኝ።	-11.1072
▁the	-11.1072
▁ክንድ	-11.1072
▁አንብበዋል፧	-11.1072
▁ፍጠን	-11.1072
▁ቅቤ	-11.1072
▁ምግባ	-11.1072
▁sagalitti	-11.1072
▁hawwatuudha	-11.1073
▁የሚያስፈልገው	-11.1073
▁ድርድር	-11.1073
▁ከምሳ	-11.1074
ዘጋጁ	-11.1074
▁200	-11.1074
▁መምህራችን	-11.1075
▁dhibne	-11.1076
▁garagalchi	-11.1076
▁ሰጥቱዋል።	-11.1077
▁እንደሚያውቅ	-11.1077
▁ታማኝነት	-11.1078
▁cite	-11.1079
▁ገቡ።	-11.1081
▁አውቃለሁ፣	-11.1081
▁ምስጢር	-11.1081
▁መታገስ	-11.1081
▁barreesseen	-11.1083
▁jaappaanitti	-11.1083
▁ምነው	-11.1086
▁ለመቀበል	-11.1086
▁በአልጋ	-11.1088
ዎቻችን	-11.1089
▁ብቆይ	-11.1089
▁ከምንም	-11.1096
▁fageenyaan	-11.1097
▁በተቻለኝ	-11.1099
▁beekamti	-11.1099
▁ነበሩ፧	-11.1099
▁oliif	-11.1104
▁በእኛ	-11.1108
▁የመሆን	-11.1116
▁cufaadha	-11.1121
▁imal	-11.1136
▁መርከቡዋ	-11.1148
▁አስተካክ	-11.1151
▁affeeram	-11.1163
▁ጽጌረዳዎች	-11.1193
▁makamuu	-11.1196
▁jal	-11.1228
▁Toomii	-11.1265
ትላንትናው	-11.1289
ጨዋታው	-11.1384
▁murteessine	-11.1392
▁dinqisiifadh	-11.1412
ጠበቀው	-11.1415
▁እጁ	-11.1438
▁አውቃለሁ	-11.1442
▁አንችልም	-11.1453
▁አይደለሁም	-11.1453
▁ተመልከት	-11.1453
▁ulfa	-11.1473
W	-11.1485
▁ለብሳ	-11.1486
P	-11.1487
▁ግጥሚያ	-11.1487
ማመስገን	-11.1487
▁beeylada	-11.1487
▁diinagdee	-11.1487
▁elektirikii	-11.1487
▁fooyyess	-11.1487
▁gaarreen	-11.1487
▁haguuggii	-11.1487
▁hawaasummaa	-11.1487
▁huccuu	-11.1487
▁jaaksan	-11.1487
▁karoorfatte	-11.1487
▁konkolaattonni	-11.1487
▁mijatu	-11.1487
▁pilaaneetii	-11.1487
▁qoonqoo	-11.1487
▁raawwatu	-11.1487
▁sanyii	-11.1487
▁soorata	-11.1487
▁ለመስማት	-11.1487
▁ለጊዜው	-11.1487
▁መስኮቶቹ	-11.1487
▁መቆለፊያ	-11.1487
▁መደምደሚያ	-11.1487
▁ማስጠንቀቂያ	-11.1487
▁ማእበል	-11.1487
▁ሳህኖቹን	-11.1487
▁ስለተፈጠረው	-11.1487
▁ስብስብ	-11.1487
▁ቃጠሎ	-11.1487
▁በሁለቱ	-11.1487
▁በአካባቢው	-11.1487
▁በእነዚያ	-11.1487
▁በገንዘብ	-11.1487
▁በጥሞና	-11.1487
▁ቫዮሊን	-11.1487
▁ተጠንቀቅ	-11.1487
▁ትናንሽ	-11.1487
▁ትናገራለች።	-11.1487
▁ናፍቆት	-11.1487
▁አልተናገረም።	-11.1487
▁አልነበረበትም።	-11.1487
▁አልነበረንም።	-11.1487
▁አስተሳሰብ	-11.1487
▁አስጸያፊ	-11.1487
▁አነባለሁ።	-11.1487
▁አድርገዋል።	-11.1487
▁አግኝተሃል፧	-11.1487
▁እጠባበቃለሁ።	-11.1487
▁እፎይታ	-11.1487
▁ከወትሮው	-11.1487
▁ካሰብኩት	-11.1487
▁ኮከብ	-11.1487
▁ውሰድ።	-11.1487
▁የሂሳብ	-11.1487
▁የይለፍ	-11.1487
▁ያደርጋሉ።	-11.1487
▁ይጠይቃል።	-11.1487
▁ዮሀንስ	-11.1487
▁ደረስን።	-11.1487
▁ደነገጥኩ	-11.1487
▁ጠፍጣፋ	-11.1487
▁ጥንካሬ	-11.1487
▁ጨርሰሃል፧	-11.1487
▁ፋይዳ	-11.1487
▁ammayyaa	-11.1487
▁anniisaa	-11.1487
▁hawwu	-11.1487
▁lilmoo	-11.1487
▁takkaa	-11.1487
▁ለመጫወት	-11.1487
▁ተበላሽቱዋል።	-11.1487
▁አይመስሉም።	-11.1487
▁ያንብቡ።	-11.1487
▁ይከሰታል።	-11.1487
▁faashinii	-11.1487
▁ምስሎች	-11.1487
▁ቁመት	-11.1487
▁መስኮቶች	-11.1487
▁አቆምኩ።	-11.1487
▁garaajee	-11.1487
▁መሳተፍ	-11.1487
▁የምሄድበት	-11.1487
▁አላስብም።	-11.1487
▁ገበሬ	-11.1487
▁ተለወጠ።	-11.1487
▁cabsite	-11.1487
▁obaas	-11.1487
▁መጥተህ	-11.1487
▁አልስማማም።	-11.1487
▁ድመቴ	-11.1487
▁baatirii	-11.1487
▁ስለነበረ	-11.1487
▁himannaa	-11.1487
▁ተጀመረ።	-11.1487
▁ክፍለ	-11.1487
▁ፈራሁ።	-11.1487
▁በነጻ	-11.1488
▁taphannu	-11.1488
▁afurtama	-11.1488
▁baalli	-11.1488
▁ከብዙ	-11.1488
▁dhiita	-11.1488
▁jeequmsi	-11.1488
ይታወቅ	-11.1488
▁dhiifte	-11.1488
▁ከሩቅ	-11.1488
▁አድርግልኝ።	-11.1488
▁አደረግክ፧	-11.1488
▁አፋር	-11.1488
▁suphamu	-11.1488
▁50	-11.1488
▁አለን፧	-11.1488
▁መልኩ	-11.1489
▁የገዛሁት	-11.1489
▁himinaa	-11.1489
▁durbaa	-11.1489
▁የውሃ	-11.1489
▁gurri	-11.1489
▁marfam	-11.1489
▁ልደቴ	-11.149
▁አደረግኩት።	-11.149
▁santa	-11.149
▁gaafatta	-11.149
ተቃጠለ	-11.149
▁ፈራ።	-11.1491
▁baanu	-11.1491
▁አልገባህም	-11.1492
▁እየተመለከተ	-11.1492
▁hubadheera	-11.1493
▁ይገባዋል።	-11.1498
▁በቀስታ	-11.1498
▁callisaa	-11.1499
▁ኮቴ	-11.15
▁ጃፓንኛ	-11.1502
▁መጣች።	-11.1504
ወረደ	-11.1504
▁እንድትቆይ	-11.1505
▁injifannoo	-11.1506
▁uffadheen	-11.1507
▁ነጻነት	-11.151
▁kadhat	-11.151
▁doktor	-11.1513
ተናገረች	-11.1518
▁simbirroota	-11.152
ወዳደር	-11.1521
▁አይረዳ	-11.1532
ኳቸው	-11.1549
ዳደር	-11.1563
▁nyaatta	-11.1574
▁eegalte	-11.1583
toom	-11.1584
ተደሰትክ	-11.1585
▁ገዛሁ	-11.1609
▁agarsiisu	-11.1623
ታጠቡ	-11.1623
▁አሻንጉሊ	-11.1625
▁ትረዳ	-11.1654
ናፍቃ	-11.1663
▁kunuunsu	-11.1673
▁bilbili	-11.1675
▁tolchu	-11.1676
▁አልጠየ	-11.172
ለፍኩ	-11.1777
▁dhungatte	-11.1784
▁ጽጌረዳ	-11.179
▁turin	-11.1808
▁ሶፋ	-11.1823
▁fiiga	-11.1848
የተደረገ	-11.1922
▁ታምሜ	-11.1922
▁ilaalchi	-11.1922
▁ciccimoo	-11.1922
▁raggaasis	-11.1922
ፑ	-11.1922
▁arraba	-11.1922
▁dhukaase	-11.1922
▁dunkaana	-11.1922
▁iskuweer	-11.1922
▁kireeffachuu	-11.1922
▁komachaa	-11.1922
▁muuziyeemicha	-11.1922
▁nyaanna	-11.1922
▁onkoloolessa	-11.1922
▁shugguxii	-11.1922
▁walumaagalatti	-11.1922
▁xiinxal	-11.1922
▁xiyyeeffat	-11.1922
▁ሀሳቦች	-11.1922
▁ሃሳቦች	-11.1922
▁ለፈተና	-11.1922
▁ልጆቻችሁ	-11.1922
▁መሸጥ	-11.1922
▁መብራቶች	-11.1922
▁መንገዶች	-11.1922
▁መደርደሪያ	-11.1922
▁መግለጽ	-11.1922
▁ማናችንም	-11.1922
▁ማዘጋጀት	-11.1922
▁ሪፖርቱን	-11.1922
▁ቀድመህ	-11.1922
▁በሂሳብ	-11.1922
▁በጉዳዩ	-11.1922
▁ባለትዳር	-11.1922
▁ታውቃለች።	-11.1922
▁አላደረግኩም።	-11.1922
▁አማራጮች	-11.1922
▁አቀረበ።	-11.1922
▁አይወዱም።	-11.1922
▁እምብዛም	-11.1922
▁እወዳታለሁ።	-11.1922
▁ከሁለቱ	-11.1922
▁ወታደሮች	-11.1922
▁የመውጣት	-11.1922
▁የተቻለውን	-11.1922
▁የተወሳሰበ	-11.1922
▁ይሸጣል።	-11.1922
▁ይጠቀማል።	-11.1922
▁ይጠንቀቁ።	-11.1922
▁ጉድጓድ	-11.1922
▁ጋራዡ	-11.1922
▁ጠበቀ።	-11.1922
▁ፍርሃት	-11.1922
ተጨናነቀ	-11.1922
▁dhiifne	-11.1922
▁kaadhimam	-11.1922
▁saayi	-11.1922
▁ተወላጅ	-11.1922
▁አይችሉም፧	-11.1922
▁ደህንነቱ	-11.1922
▁ረገድ	-11.1922
▁በማድረግ	-11.1922
▁ባደርግ	-11.1922
▁እነሳለሁ።	-11.1922
▁እጆቼ	-11.1922
▁ወረቀቱ	-11.1922
▁ይሰጣል።	-11.1922
▁dhufin	-11.1922
▁fufte	-11.1922
▁ተገኝተዋል።	-11.1922
▁ንጉሱ	-11.1922
▁የሶስት	-11.1922
▁ሞልቱዋል።	-11.1922
▁ቅጣት	-11.1922
▁በእድሜ	-11.1922
▁ከመሄድዎ	-11.1922
▁በአምስት	-11.1922
▁እንነጋገር።	-11.1922
▁እያለቀሰ	-11.1922
▁ከዛፉ	-11.1922
▁የማስበው	-11.1922
▁የተሰበረ	-11.1922
▁ሄዶ	-11.1922
▁ወንበሩ	-11.1922
▁የሚወስደውን	-11.1922
▁አልጠጣም።	-11.1922
▁የላቸውም።	-11.1922
▁መልሶች	-11.1922
▁ስልጣን	-11.1922
▁ስርአቱ	-11.1922
▁ጠጣሁ።	-11.1922
▁እየጠበቅን	-11.1922
▁ያዝኩት።	-11.1922
▁አይሄድም።	-11.1922
▁ግባ።	-11.1922
▁daldalli	-11.1922
▁አለፈ።	-11.1922
▁እንጨት	-11.1923
▁haasawa	-11.1923
ቆረጥ	-11.1923
▁ፍርድ	-11.1923
▁ከፈተ።	-11.1923
▁ንብረት	-11.1923
▁ያዙ።	-11.1923
▁ሄደህ	-11.1923
▁ለማስደሰት	-11.1923
▁ኩሬ	-11.1923
▁አቀፍ	-11.1923
▁barsiisota	-11.1924
▁daawwattoonni	-11.1925
▁ring	-11.1925
▁ይዋል	-11.1925
▁jaala	-11.1925
▁አደረግን።	-11.1927
▁geessisu	-11.1928
▁አድርጎኛል።	-11.1928
▁እገዛለሁ።	-11.1929
▁እያደረጉ	-11.1931
▁gootaniif	-11.1931
▁gaafattu	-11.1931
▁jijjiirameera	-11.1932
▁damee	-11.1932
▁ገመድ	-11.1936
በላሹ	-11.1937
▁baaseera	-11.1938
▁hadhaa	-11.194
▁waamam	-11.1941
▁ደግነት	-11.1941
▁ergasii	-11.1941
▁qulqullina	-11.1942
▁hojjeteera	-11.1943
▁የምድር	-11.1944
iyoon	-11.1947
▁ሌባ	-11.1958
ታስበው	-11.1969
▁dubbistu	-11.1973
ገኛት	-11.198
▁argamtu	-11.2061
ibsiifadh	-11.2061
ተናገርክ	-11.2069
▁jaallatama	-11.2126
ቀላቀ	-11.2208
▁affeer	-11.2272
▁oofa	-11.2302
▁አገኛለሁ	-11.2342
▁አይችልም	-11.2342
▁gubat	-11.2359
biskileetiidhaan	-11.2359
▁ራሱ	-11.2368
ታገስ	-11.2371
▁barsiift	-11.2377
▁micciir	-11.2377
R	-11.2377
▁barbad	-11.2377
▁daangeffam	-11.2377
▁gowwoomfam	-11.2377
▁ለጥያቄ	-11.2377
▁መጋረጃ	-11.2377
▁abdachaa	-11.2377
▁babbareedoo	-11.2377
▁balleessuu	-11.2377
▁barbaachisoo	-11.2377
▁cirrachi	-11.2377
▁daawwadha	-11.2377
▁dursinee	-11.2377
▁envelope	-11.2377
▁fardeen	-11.2377
▁geengoo	-11.2377
▁jaallate	-11.2377
▁maamiltoota	-11.2377
▁qumaara	-11.2377
▁roozaa	-11.2377
▁sanduuqni	-11.2377
▁tooftaa	-11.2377
▁walqixa	-11.2377
▁walqunnamtii	-11.2377
▁waltajjii	-11.2377
▁xaaliyaanii	-11.2377
▁ሀሳቤን	-11.2377
▁ሃምሳ	-11.2377
▁መብራቶቹ	-11.2377
▁መግለጫ	-11.2377
▁ምክንያቶች	-11.2377
▁ሸሸ።	-11.2377
▁ቅጠሎች	-11.2377
▁ቆረጠ።	-11.2377
▁በሀይቁ	-11.2377
▁በልጅነቱ	-11.2377
▁በጀልባ	-11.2377
▁በጨለማ	-11.2377
▁ብቸኝነት	-11.2377
▁ትራፊክ	-11.2377
▁አርቲስት	-11.2377
▁አስቀድመን	-11.2377
▁አያደርግም።	-11.2377
▁አይስክሬም	-11.2377
▁እነግራችኹዋለሁ።	-11.2377
▁እንክብካቤ	-11.2377
▁እንውጣ።	-11.2377
▁እየተጫወተ	-11.2377
▁ከእንጨት	-11.2377
▁ኮንሰርት	-11.2377
▁የህክምና	-11.2377
▁የነገርኩህ	-11.2377
▁የእንግሊዘኛ	-11.2377
▁ያሸንፋል	-11.2377
▁ያግኙ።	-11.2377
▁ይንገሩን።	-11.2377
▁ይከብደኛል።	-11.2377
▁ይካሄዳል።	-11.2377
▁ይኸውልህ።	-11.2377
▁ይዝጉ።	-11.2377
▁ይጮኻል።	-11.2377
▁ደንበኞች	-11.2377
▁ጩኸቱ	-11.2377
▁sibiilli	-11.2377
▁ለመንዳት	-11.2377
▁መመርመር	-11.2377
▁መጠገን	-11.2377
▁መጸዳጃ	-11.2377
▁አግኝተዋል፧	-11.2377
▁ክርክር	-11.2377
▁የምፈልጋቸው	-11.2377
▁የክፍል	-11.2377
▁ጨምሯል።	-11.2377
▁Afaan	-11.2377
▁fujii	-11.2377
▁ተነስቱዋል።	-11.2377
▁ናችሁ፧	-11.2377
▁እጫወት	-11.2377
▁የልደት	-11.2377
▁ያደግኩት	-11.2377
▁ጠየኩት።	-11.2377
▁ጥርጥር	-11.2377
▁ጽንሰ	-11.2377
▁ታደርግ	-11.2377
▁እንደማልችል	-11.2377
▁ከአባቴ	-11.2377
▁ወስኗል።	-11.2377
▁መሰረዝ	-11.2377
▁ሊያየኝ	-11.2377
▁ነገረችኝ።	-11.2377
▁akkanumatti	-11.2377
▁gaabbu	-11.2377
ረጋግጥ	-11.2377
▁አይሰጥም።	-11.2377
▁አይቆይም።	-11.2377
ተፈጸመ	-11.2377
▁fagaadhee	-11.2377
▁አልኩህ።	-11.2377
▁አያውቁም።	-11.2377
▁ልጇን	-11.2377
▁የአደጋ	-11.2377
▁አይለኝም።	-11.2377
▁kottu	-11.2377
▁መሀል	-11.2377
▁iyyachuu	-11.2377
▁ሞተሩ	-11.2377
▁በእስር	-11.2377
▁እያደገ	-11.2377
▁rifann	-11.2377
▁Kun	-11.2377
▁ፕላ	-11.2378
▁araarama	-11.2378
▁kadhadha	-11.2378
▁ሙያ	-11.2378
▁qabbanaawaa	-11.2378
▁እወድሃለሁ።	-11.2378
▁ulfaatu	-11.2378
▁biqiltoonni	-11.2379
▁boruutti	-11.2379
▁ባንድ	-11.2379
▁እንበላለን	-11.2379
▁የግድ	-11.2379
▁መጠኑ	-11.2379
▁ባለፉት	-11.2379
▁አብራችሁ	-11.2379
▁መሬቱ	-11.238
ተደሰተ	-11.238
▁ስለሌለ	-11.238
▁leenjisaa	-11.238
▁300	-11.238
▁balfa	-11.2381
▁sobde	-11.2381
▁በቀስ	-11.2381
▁ትመጣለች	-11.2382
▁የእንግሊዝኛ	-11.2382
▁ባለጌ	-11.2382
15	-11.2382
▁ትዝታ	-11.2382
▁ወሰን	-11.2383
▁ጎጆ	-11.2383
▁fudhadheen	-11.2385
▁ነበርኩኝ።	-11.2385
▁fideen	-11.2385
▁harkisaa	-11.2385
▁አጥተዋል።	-11.239
▁taphattuu	-11.2391
▁qabamtee	-11.2392
▁dhiphate	-11.2397
▁qunnamu	-11.2404
▁aarse	-11.2404
▁የሰማሁ	-11.241
ተናደድኩ	-11.2449
ረሳሁ	-11.2453
▁pirezidaantii	-11.2455
ያጨስ	-11.2458
▁qabi	-11.248
▁sodaanne	-11.2511
▁cufadh	-11.2557
▁የተጨነቀ	-11.2615
▁ከነገ	-11.2666
lch	-11.2725
▁ህይወቴ	-11.277
▁salph	-11.2771
tch	-11.2789
▁fudhatin	-11.279
▁ወዲያ	-11.2816
▁አደርጋለሁ	-11.2818
▁ጦር	-11.2839
▁yaadachiis	-11.2845
ትነግረኝ	-11.2846
J	-11.2853
shirt	-11.2853
▁abdat	-11.2853
▁akkoo	-11.2853
▁artistii	-11.2853
▁ayskiriimii	-11.2853
▁dagannu	-11.2853
▁dhaamse	-11.2853
▁digdamii	-11.2853
▁geejjibaa	-11.2853
▁hiriyoota	-11.2853
▁hirribni	-11.2853
▁jaarraa	-11.2853
▁karameellaa	-11.2853
▁kiristaana	-11.2853
▁moodeela	-11.2853
▁qamalee	-11.2853
▁qind	-11.2853
▁qisaasessu	-11.2853
▁ujummoo	-11.2853
▁urgooftuu	-11.2853
▁zayitii	-11.2853
▁ሀሳቡን	-11.2853
▁ለመቀነስ	-11.2853
▁ለመክፈት	-11.2853
▁ሊከሰት	-11.2853
▁መብረር	-11.2853
▁መተርጎም	-11.2853
▁መቸኮል	-11.2853
▁መዋሸት	-11.2853
▁ማምለጥ	-11.2853
▁ቁልፎች	-11.2853
▁በሁለተኛ	-11.2853
▁በማድረጌ	-11.2853
▁በተፈጥሮ	-11.2853
▁በትክክለኛው	-11.2853
▁በየምሽቱ	-11.2853
▁በጸሀይ	-11.2853
▁ብርሃኑ	-11.2853
▁ተገናኘን።	-11.2853
▁ተጨናንቁዋል።	-11.2853
▁ተጫውቱዋል።	-11.2853
▁አስቀምጫለሁ።	-11.2853
▁እንደማላደርግ	-11.2853
▁እንዲኖረኝ	-11.2853
▁ከእናንተ	-11.2853
▁ካልፈለግክ	-11.2853
▁ዋዜማ	-11.2853
▁የተፈጥሮ	-11.2853
▁ያስደስተኛል።	-11.2853
▁ይጫወታሉ።	-11.2853
▁ጋዜጦች	-11.2853
▁ጠየቀቻት።	-11.2853
▁ጥንታዊ	-11.2853
ጎረቤት	-11.2853
ጠነቀቅ	-11.2853
▁balleesse	-11.2853
▁sababiin	-11.2853
▁ለእረፍት	-11.2853
▁ሰረቀ።	-11.2853
▁ቅድመ	-11.2853
▁ተለውጧል።	-11.2853
▁ነጋዴ	-11.2853
▁ኖረ።	-11.2853
▁እውቀት	-11.2853
▁እጠላዋለሁ።	-11.2853
ማስመሰል	-11.2853
ተቃዋሚ	-11.2853
▁አሳይሃለሁ።	-11.2853
▁እየተፈጠረ	-11.2853
▁እጠጣለሁ።	-11.2853
▁ከእነሱ	-11.2853
▁ariitiin	-11.2853
▁ሀቀኛ	-11.2853
▁እንግዶች	-11.2853
▁ተገኝቱዋል።	-11.2853
▁እባቦች	-11.2853
▁hamilee	-11.2853
▁ሰጣት።	-11.2853
▁ማስያዝ	-11.2853
▁በመስራት	-11.2853
▁ለአፍታ	-11.2853
▁ነባሪ	-11.2853
▁ግፊት	-11.2853
▁naive	-11.2853
▁ጭጋግ	-11.2853
▁Gara	-11.2853
▁ፍንጭ	-11.2853
▁ያደርግ	-11.2853
ያመልጥ	-11.2853
▁ቀርቱዋል።	-11.2853
▁ከመኪና	-11.2853
▁ለሴት	-11.2853
▁በባዶ	-11.2853
ተገናኙ	-11.2853
▁baaldi	-11.2853
▁ደረቅ	-11.2853
▁feete	-11.2853
▁ረሳው።	-11.2853
▁ገባህ፧	-11.2853
▁Sun	-11.2854
▁fuudhan	-11.2854
▁ሰወች	-11.2854
▁imaltoonni	-11.2854
▁ሱቁ	-11.2854
▁ባህል	-11.2854
▁መሳቅ	-11.2854
▁ምክሩ	-11.2854
▁መንጃ	-11.2854
▁ጻፍ።	-11.2854
▁imaltoota	-11.2854
▁ከውጭ	-11.2855
▁ጎደል	-11.2855
▁bahan	-11.2855
ያስደስት	-11.2857
▁ወጥመድ	-11.2857
▁loonii	-11.2857
▁dhiqachaa	-11.2857
▁jalqabaatiif	-11.2858
▁ተራሮች	-11.2858
▁የማይመስል	-11.2858
▁እንድናደርግ	-11.2858
▁kaffaleera	-11.2858
▁bulchaa	-11.2859
▁banuuf	-11.2859
▁gaarri	-11.286
▁ጥበቃ	-11.286
▁አመጣህ፧	-11.2861
▁qaanfa	-11.2861
▁የሚያስደስት	-11.2862
▁የማይቀር	-11.2862
መርሳት	-11.2863
▁ሻንጣዬን	-11.2863
▁eegamu	-11.2864
▁ነርስ	-11.2864
ዋቸው።	-11.2865
▁gammachiisuuf	-11.2865
▁fakkiiwwan	-11.2866
▁ሞተዋል።	-11.2866
▁hatuu	-11.2866
▁ቀንሱዋል።	-11.2868
▁dammaqsi	-11.2869
▁xumurameera	-11.2871
▁የሚመጣው	-11.2873
▁11	-11.2875
▁የሌላቸው	-11.2884
▁kunuunsi	-11.2933
▁duul	-11.2961
umsi	-11.2994
▁buut	-11.3009
▁ይገባሃል	-11.3018
▁turtii	-11.3041
▁nyaatin	-11.3111
▁lag	-11.3132
▁አእምሮዬ	-11.3193
ibsiif	-11.3232
ያጠና	-11.3246
▁እራስዎ	-11.3271
20	-11.3294
▁konkolaachi	-11.3301
▁hubatam	-11.332
▁dagatte	-11.335
ቴሌቪዥኑ	-11.3352
▁komata	-11.3352
▁dinqii	-11.3353
▁komadh	-11.3353
▁ክብደቱ	-11.3353
▁abbootii	-11.3353
▁arjoom	-11.3353
▁australia	-11.3353
▁chaarjii	-11.3353
▁chicken	-11.3353
▁cimina	-11.3353
▁dhaamsaa	-11.3353
▁dhiiftu	-11.3353
▁dhungadh	-11.3353
▁eegnu	-11.3353
▁firaasha	-11.3353
▁gammanne	-11.3353
▁gammoojjii	-11.3353
▁gowwoms	-11.3353
▁gowwoomsu	-11.3353
▁gurguddaa	-11.3353
▁haasofna	-11.3353
▁hanqina	-11.3353
▁imaammata	-11.3353
▁jazz	-11.3353
▁mirkaneesse	-11.3353
▁qixa	-11.3353
▁raashiyaa	-11.3353
▁raawwadhu	-11.3353
▁reservation	-11.3353
▁tiraafikoonni	-11.3353
▁tuutni	-11.3353
▁vaayiliini	-11.3353
▁ህጋዊ	-11.3353
▁ለልጆች	-11.3353
▁ለምጃለሁ።	-11.3353
▁መናፈሻ	-11.3353
▁መንግስቱ	-11.3353
▁ምኞት	-11.3353
▁በበለጠ	-11.3353
▁በድጋሚ	-11.3353
▁ቡችላ	-11.3353
▁ተሰብሯል።	-11.3353
▁ተቀምጠዋል።	-11.3353
▁ተይዟል።	-11.3353
▁ተጠርጣሪ	-11.3353
▁ቲያትር	-11.3353
▁ትሄዳለች።	-11.3353
▁ትበልጣለች።	-11.3353
▁ትችላላችሁ።	-11.3353
▁ኖረዋል፧	-11.3353
▁አላደረኩም።	-11.3353
▁አልተገኘም።	-11.3353
▁እንብላ።	-11.3353
▁እንደሚፈልጉ	-11.3353
▁እድለኞች	-11.3353
▁እጓዛለሁ።	-11.3353
▁ከረሜላ	-11.3353
▁ከቁጥጥር	-11.3353
▁ከአደጋው	-11.3353
▁ከክፍሉ	-11.3353
▁ዘመናዊ	-11.3353
▁ዝንጀሮ	-11.3353
▁የቪዲዮ	-11.3353
▁የደህንነት	-11.3353
▁ያስታውሰኛል።	-11.3353
▁ይንከባከባል።	-11.3353
▁ጀምሯል።	-11.3353
▁ጀርመን	-11.3353
▁ግማሹን	-11.3353
▁ጥልቀት	-11.3353
▁ፈጅቶብኛል።	-11.3353
ቬ	-11.3353
▁dafanii	-11.3353
▁dhiheessu	-11.3353
▁dhiphoo	-11.3353
▁ለማጥመድ	-11.3353
▁ሊኖረኝ	-11.3353
▁አትሁኑ።	-11.3353
▁ዋስትና	-11.3353
▁furdina	-11.3353
▁ለቁርስ	-11.3353
▁ሳጥኖች	-11.3353
▁ከሌሎች	-11.3353
▁መግባባት	-11.3353
▁አልነገረኝም።	-11.3353
▁አዳራሽ	-11.3353
▁ይቀጥሉ።	-11.3353
▁ለመግባት	-11.3353
▁ሞክሬ	-11.3353
▁አላየውም።	-11.3353
▁እራሴን	-11.3353
▁ከቁርስ	-11.3353
▁ግብይት	-11.3353
▁cinatti	-11.3353
▁ትውስታ	-11.3353
▁እንደነበሩ	-11.3353
▁ላንቺ	-11.3353
▁ገብቱዋል።	-11.3353
▁በማንበብ	-11.3353
▁የሉትም።	-11.3353
▁ይረዳል።	-11.3353
▁ጠበኛ	-11.3353
▁በትንሹ	-11.3353
▁እንቀመጥ።	-11.3353
▁ያበቃል።	-11.3353
▁ቀዳዳ	-11.3353
▁ካንሰር	-11.3353
▁ያልተጠበቀ	-11.3353
▁hammachuu	-11.3353
▁ጽፌ	-11.3353
▁የጭነት	-11.3353
▁አልፈዋል።	-11.3353
▁በምግብ	-11.3353
▁አትናገር።	-11.3353
▁ጥይት	-11.3353
▁dhoohe	-11.3353
▁መስማማት	-11.3353
▁dhoksite	-11.3353
▁አይኖቹዋ	-11.3353
ውድድሩ	-11.3353
መሆናቸው	-11.3353
▁ምስጢሩን	-11.3353
▁ተኩላ	-11.3354
▁ማውጫ	-11.3354
▁dhukkubsachuu	-11.3354
▁ልታሳየኝ	-11.3354
▁ሞቱ።	-11.3354
▁አገኘኹዋት።	-11.3354
▁ዳንስ	-11.3354
▁በጋራ	-11.3354
▁በአስራዎቹ	-11.3355
▁jiinii	-11.3355
▁ረክተ	-11.3356
▁cich	-11.3357
ተዘጋጀ	-11.3357
▁ፈረሱ	-11.3358
▁shakkamaa	-11.3358
▁ያየሁት	-11.3358
ከተለኝ	-11.3358
▁barte	-11.3358
▁ተመለከተች።	-11.3358
▁መጥራት	-11.3359
▁ብንሆን	-11.336
▁ለዛሬ	-11.3361
▁ህጉ	-11.3361
▁dullooman	-11.3361
▁ለማሸነፍ	-11.3362
▁marsaa	-11.3362
▁መንታ	-11.3364
▁Har	-11.3364
ቸኮለ	-11.3365
jjii	-11.3366
▁በእጄ	-11.3366
▁dhalatte	-11.3368
ያለቅስ	-11.3372
▁mootar	-11.3372
▁ጣት	-11.3376
▁waaqayyoo	-11.3401
መረቅ	-11.3406
▁kaasu	-11.3488
▁argin	-11.3513
▁daayi	-11.3529
▁dhabu	-11.3757
ቀዝቃዛ	-11.3781
mneef	-11.3806
▁uffate	-11.3814
▁ይመስላል	-11.3832
▁ይችላሉ	-11.3832
▁karoorfattan	-11.3832
▁cims	-11.3834
N	-11.3843
▁አልነበረም	-11.3844
▁ሞከርኩ	-11.3845
ተለያዩ	-11.3852
▁fiigi	-11.3869
▁xiyya	-11.3879
ቮ	-11.3879
▁Faransaayii	-11.3879
▁abdadha	-11.3879
▁abshaala	-11.3879
▁afrikaa	-11.3879
▁allaattii	-11.3879
▁buddeena	-11.3879
▁daawwadhe	-11.3879
▁dhiifnu	-11.3879
▁dhiqu	-11.3879
▁dhohinsi	-11.3879
▁eeshiyaa	-11.3879
▁gooftaa	-11.3879
▁industirii	-11.3879
▁jarana	-11.3879
▁kirkira	-11.3879
▁komate	-11.3879
▁konfiraansii	-11.3879
▁loltuu	-11.3879
▁loojikii	-11.3879
▁motora	-11.3879
▁qaanessa	-11.3879
▁qacara	-11.3879
▁qusann	-11.3879
▁walfakkaat	-11.3879
▁ለመጎብኘት	-11.3879
▁ለማስወገድ	-11.3879
▁ለተጨማሪ	-11.3879
▁መድሃኒቱ	-11.3879
▁መጠጦች	-11.3879
▁ማስታወቂያ	-11.3879
▁ቁጥሮች	-11.3879
▁በመስኮት	-11.3879
▁በመታጠቢያ	-11.3879
▁በመካከላችን	-11.3879
▁በአሜሪካ	-11.3879
▁በክረምት	-11.3879
▁በፈተና	-11.3879
▁ተገደለ።	-11.3879
▁ተግባራዊ	-11.3879
▁ተፈጥሯዊ	-11.3879
▁ቲሸርት	-11.3879
▁ትጫወታለህ፧	-11.3879
▁አለበለዚያ	-11.3879
▁አልቻሉም።	-11.3879
▁አታድርጉ።	-11.3879
▁እንሞክራለን።	-11.3879
▁እየሞከርን	-11.3879
▁እየቀዘቀዘ	-11.3879
▁እያነበበ	-11.3879
▁ከልጆች	-11.3879
▁ከመጀመሪያው	-11.3879
▁ከወላጆቹ	-11.3879
▁ካየኹዋቸው	-11.3879
▁ክብደቴ	-11.3879
▁ወንዶቹ	-11.3879
▁የቅርጫት	-11.3879
▁የተሳሳቱ	-11.3879
▁የታወቀ	-11.3879
▁የኮምፒውተር	-11.3879
▁የወደፊት	-11.3879
▁ያስቀምጡት።	-11.3879
▁ያገኛሉ።	-11.3879
▁ይገኛሉ።	-11.3879
▁ዶክተሮች	-11.3879
▁ጀመረች።	-11.3879
▁ጀምሬያለሁ።	-11.3879
▁ጃፓናዊ	-11.3879
▁ግድየለሽ	-11.3879
▁ፍራፍሬ	-11.3879
▁ፍቅረኛ	-11.3879
▁ፓስፖርቴ	-11.3879
▁balleessi	-11.3879
▁dulloomtu	-11.3879
▁gaggeess	-11.3879
▁guddittii	-11.3879
▁kaampii	-11.3879
▁ህልሜ	-11.3879
▁ለማስተካከል	-11.3879
▁ሶስቱ	-11.3879
▁በመጫወት	-11.3879
▁በሚስጥር	-11.3879
▁ተጠምዷል።	-11.3879
▁ትፈራለህ፧	-11.3879
▁እያዘጋጀ	-11.3879
▁ከወንዶች	-11.3879
▁ደንበኛ	-11.3879
▁faayila	-11.3879
▁meetroo	-11.3879
▁እንጫወት።	-11.3879
▁የሚያደርግ	-11.3879
▁ይደውሉልኝ።	-11.3879
▁ለመራመድ	-11.3879
▁መሙላት	-11.3879
▁daran	-11.3879
▁ሞተች።	-11.3879
▁የሀገር	-11.3879
▁ገጣሚ	-11.3879
eessota	-11.3879
▁haamtuu	-11.3879
▁መግቢያ	-11.3879
▁በመስመር	-11.3879
▁የተወለድኩት	-11.3879
▁ጃኬት	-11.3879
▁out	-11.3879
▁መአዛ	-11.3879
▁ማሳመን	-11.3879
▁ነጥቡ	-11.3879
▁ይባላል።	-11.3879
▁ለአደጋ	-11.3879
▁laafaa	-11.3879
▁የተሻሉ	-11.3879
▁ኖሯል።	-11.3879
ናግረው	-11.3879
▁እላለሁ።	-11.3879
▁ድሆች	-11.3879
▁ከተሞች	-11.3879
▁ብልጭ	-11.3879
▁beekamoo	-11.3879
▁በቢላ	-11.3879
▁ቀረበ	-11.388
▁ነገረው።	-11.388
▁ያዘኝ።	-11.388
አፍሪካ	-11.388
▁ሊኖሩ	-11.388
▁tuuta	-11.388
▁የስልክ	-11.388
▁ደረስኩ።	-11.388
▁አልኮል	-11.388
▁ከልጅ	-11.388
▁ያጠናል።	-11.388
▁ኩራት	-11.388
▁ተሳስተሃል	-11.388
▁mariisis	-11.388
▁ሽንት	-11.388
over	-11.388
▁spoon	-11.388
▁አንብበ	-11.388
▁ችያለሁ።	-11.388
▁የዱር	-11.388
▁በሰዎች	-11.3881
▁የጋራ	-11.3881
▁ከሞተ	-11.3881
▁አስቀምጠው።	-11.3881
▁suutii	-11.3882
ቸኩል	-11.3882
▁bofa	-11.3882
▁ቁጣ	-11.3883
▁ራሱዋን	-11.3883
▁በዝቶብሃል	-11.3883
▁dammaqsuu	-11.3883
▁25	-11.3883
▁weerar	-11.3883
▁ኒው	-11.3883
▁bet	-11.3883
▁golee	-11.3884
▁የሚሰማኝ	-11.3885
▁duune	-11.3885
▁dhukkubsu	-11.3886
▁አስረዳ	-11.3887
▁beekamu	-11.3888
▁up	-11.3889
▁መጣሁ።	-11.389
▁ስሜቱን	-11.389
▁harkisuu	-11.389
ቀዘቀ	-11.3892
▁harkisee	-11.3902
▁loomii	-11.3903
▁dubbatamu	-11.3908
▁kaafam	-11.3917
▁ብስክሌ	-11.3929
▁ጭንቅላቴ	-11.395
▁የተጠበቀ	-11.3972
ናደዱ	-11.4013
▁jalqabi	-11.4113
▁guddisuu	-11.4221
ከላከ	-11.4264
ፍትሃዊ	-11.4336
ያልፍ	-11.4352
▁hatattamaa	-11.4374
▁የሌለ	-11.4407
▁kuduraa	-11.4428
ኜ	-11.4435
ሃርቫርድ	-11.4435
ቀዘቅዝ	-11.4435
ችኹዋል፧	-11.4435
▁beelofne	-11.4435
▁calaqqis	-11.4435
▁dhaabbilee	-11.4435
▁dhaabde	-11.4435
▁dheerina	-11.4435
▁dhungannaa	-11.4435
▁dukkaana	-11.4435
▁goggogaa	-11.4435
▁gungum	-11.4435
▁hiriyummaa	-11.4435
▁infuleenzaa	-11.4435
▁jechoonni	-11.4435
▁kaapteenii	-11.4435
▁loltoota	-11.4435
▁magaalota	-11.4435
▁mobaayila	-11.4435
▁muuzaa	-11.4435
▁qeenxee	-11.4435
▁raawwadhe	-11.4435
▁raawwatte	-11.4435
▁saayikilii	-11.4435
▁sassaab	-11.4435
▁shakku	-11.4435
▁tarkaanfadh	-11.4435
▁tiyaatira	-11.4435
▁tuqe	-11.4435
▁yaalnu	-11.4435
▁ለእያንዳንዱ	-11.4435
▁ሊኖረን	-11.4435
▁መሆኗን	-11.4435
▁መተንፈስ	-11.4435
▁መወያየት	-11.4435
▁መጨናነቅ	-11.4435
▁ርዝመት	-11.4435
▁ቁልፎቹን	-11.4435
▁በመስማቴ	-11.4435
▁በመስታወት	-11.4435
▁በከባድ	-11.4435
▁በውጤቱ	-11.4435
▁በየማለዳው	-11.4435
▁በግድግዳው	-11.4435
▁በፍርሃት	-11.4435
▁ተቃጥሉዋል።	-11.4435
▁ትርኢት	-11.4435
▁ትጠብቃለህ፧	-11.4435
▁ነበራቸው።	-11.4435
▁አላገኘም።	-11.4435
▁አመስጋኝ	-11.4435
▁አቀላጥፎ	-11.4435
▁አቅርቦት	-11.4435
▁አዛውንቱ	-11.4435
▁አዝዣለሁ።	-11.4435
▁አያስፈልገንም	-11.4435
▁እንውሰድ።	-11.4435
▁እንደበፊቱ	-11.4435
▁እንገናኛለን።	-11.4435
▁ከክፍል	-11.4435
▁ከጃፓን	-11.4435
▁ኮምፒውተሮች	-11.4435
▁ወዳጃዊ	-11.4435
▁ዝግጅት	-11.4435
▁የቻይና	-11.4435
▁የአካባቢ	-11.4435
▁የወርቅ	-11.4435
▁የገበያ	-11.4435
▁ያስተምራል።	-11.4435
▁ይሻለናል።	-11.4435
▁ይናገራሉ።	-11.4435
▁ግጥሙን	-11.4435
▁ግጥሞች	-11.4435
▁ጎረቤቶች	-11.4435
▁ጠንክረው	-11.4435
▁digrii	-11.4435
▁dinqisiifam	-11.4435
▁geggeess	-11.4435
▁godoo	-11.4435
▁madda	-11.4435
▁ለመሞከር	-11.4435
▁ለመቆጠብ	-11.4435
▁ለመጠገን	-11.4435
▁ልምምድ	-11.4435
▁በደህና	-11.4435
▁ተመልሼ	-11.4435
▁ወድቄ	-11.4435
▁የፈለገ	-11.4435
▁ይቆያል።	-11.4435
▁ይዟል።	-11.4435
▁ይገርማል።	-11.4435
▁diigam	-11.4435
▁raammoo	-11.4435
▁እያወራሁ	-11.4435
▁ካደረግ	-11.4435
▁የለበሰ	-11.4435
▁bareedina	-11.4435
▁hojjetin	-11.4435
▁sirbe	-11.4435
▁መከላከል	-11.4435
▁ማብራራት	-11.4435
▁ረዳት	-11.4435
▁አትመስልም።	-11.4435
▁እንዲደረግ	-11.4435
▁ተጠናቀቀ።	-11.4435
▁እንደፈለግክ	-11.4435
▁ዮርክ	-11.4435
▁Amma	-11.4435
▁ፈለግሁ።	-11.4435
▁መዶሻ	-11.4435
▁በጉዞ	-11.4435
▁dhabameera	-11.4435
▁ካምፕ	-11.4435
▁ገምቻለሁ።	-11.4435
▁መዝናናት	-11.4435
▁መታየት	-11.4435
▁ጭማሪ	-11.4435
▁ከሰላሳ	-11.4435
▁የጥበብ	-11.4435
▁ገዳይ	-11.4435
▁seenne	-11.4435
▁ስቴክ	-11.4435
▁ችሉዋል።	-11.4435
▁ይሰማዋል።	-11.4435
▁አትበል።	-11.4435
▁ነገረህ፧	-11.4435
▁ariifadhe	-11.4435
▁baandaa	-11.4435
▁አይመጣም።	-11.4435
ደራደር	-11.4435
▁ለአስር	-11.4435
▁ለሊት	-11.4435
▁ለመወሰን	-11.4435
▁fakkaanne	-11.4435
▁kanniisa	-11.4435
መፍጠር	-11.4435
▁አባዬ	-11.4435
▁ጥዋት	-11.4435
▁ሳሎን	-11.4435
▁የቤተ	-11.4435
▁በኪስ	-11.4435
▁inkii	-11.4435
▁መቻል	-11.4435
▁ካሮት	-11.4435
▁የበሬ	-11.4436
▁ውድድሩን	-11.4436
▁ሳይንስ	-11.4436
▁ሊፍት	-11.4436
▁መራራ	-11.4436
▁ሰልችቶኛል።	-11.4436
▁ከታች	-11.4437
▁አገባ።	-11.4437
▁የሚያስቡት	-11.4437
▁ፓርክ	-11.4437
▁መርማሪ	-11.4437
▁በቀኝ	-11.4437
▁Inni	-11.4438
▁ደንብ	-11.4438
▁መጫን	-11.4438
▁ቤታቸው	-11.4438
▁sodaatin	-11.4438
▁himni	-11.4439
▁bahaa	-11.444
▁kunniin	-11.4442
ጨረሰ	-11.4444
▁አውጥተ	-11.4449
▁beekumsa	-11.445
ሳንባ	-11.4457
ቀላቅ	-11.4469
ነገሩ	-11.4475
▁መላው	-11.4479
ዳምጥ	-11.448
▁bante	-11.4512
▁hawwatt	-11.4587
▁ናፈቀ	-11.4661
▁እንደሚረዳ	-11.474
▁qulqull	-11.4827
▁ኩኪ	-11.4842
▁mijata	-11.4892
▁ያውቃል	-11.4976
▁ይኖራል	-11.4988
▁አይመስለኝም	-11.4988
ቆጣጠር	-11.5011
▁ይለኛል	-11.5013
▁shawaar	-11.5021
▁አሳልፌ	-11.5021
▁dhiyeenya	-11.5023
ጠናቀቀ	-11.5023
▁Guyyaa	-11.5023
▁abidda	-11.5023
▁argisiis	-11.5023
▁balaqqeessaan	-11.5023
▁bilcheefame	-11.5023
▁biyyi	-11.5023
▁cheerii	-11.5023
▁dessert	-11.5023
▁dinqisiifachuu	-11.5023
▁furguggii	-11.5023
▁gaabbit	-11.5023
▁giitaara	-11.5023
▁golgaa	-11.5023
▁guyyoonni	-11.5023
▁kutachiisa	-11.5023
▁minjaalli	-11.5023
▁ogeeyyii	-11.5023
▁pilaastikii	-11.5023
▁qunname	-11.5023
▁qusachaa	-11.5023
▁viizaa	-11.5023
▁yoorkitti	-11.5023
▁ሃሳቤን	-11.5023
▁ለማስረዳት	-11.5023
▁ለማጥናት	-11.5023
▁መከራየት	-11.5023
▁መደበቅ	-11.5023
▁መፍሰስ	-11.5023
▁ሙዚቀኛ	-11.5023
▁ማህተም	-11.5023
▁ማህተሞች	-11.5023
▁ምቾት	-11.5023
▁በማግኘቴ	-11.5023
▁በተግባር	-11.5023
▁በተጨማሪ	-11.5023
▁በችኮላ	-11.5023
▁በእንግሊዘኛ	-11.5023
▁በእያንዳንዱ	-11.5023
▁ባንዲራ	-11.5023
▁ተልእኮ	-11.5023
▁ተናድጃለሁ።	-11.5023
▁ተናግራለች።	-11.5023
▁ተፈጠረ።	-11.5023
▁ትሆናለች።	-11.5023
▁አልራበኝም።	-11.5023
▁አቀርባለሁ።	-11.5023
▁አትቁረጥ።	-11.5023
▁አውቶብስ	-11.5023
▁አጠራጣሪ	-11.5023
▁እስረኞች	-11.5023
▁እተወዋለሁ።	-11.5023
▁እንደተለመደው	-11.5023
▁እየፈለጉ	-11.5023
▁እያደረክ	-11.5023
▁እያገኘ	-11.5023
▁ከአውስትራሊያ	-11.5023
▁ከወላጆቼ	-11.5023
▁ዜጎች	-11.5023
▁የሚገርመኝ	-11.5023
▁የኢኮኖሚ	-11.5023
▁የኩባንያው	-11.5023
▁ያደርጋሉ፧	-11.5023
▁ይሸታል።	-11.5023
▁ይታወቃል።	-11.5023
▁ይክፈቱ።	-11.5023
▁ጠመንጃ	-11.5023
▁ጠየቀችኝ።	-11.5023
▁ጠየቅሁት።	-11.5023
▁ጨርሰዋል፧	-11.5023
▁ፖለቲካ	-11.5023
ደመወዝ	-11.5023
▁baadiyyaa	-11.5023
▁gabaasni	-11.5023
▁nyaachif	-11.5023
▁ለመከላከል	-11.5023
▁ሰሞኑን	-11.5023
▁ቅዱስ	-11.5023
▁አገኙት፧	-11.5023
▁እንደማደርግ	-11.5023
▁የማልችለው	-11.5023
▁የቡድን	-11.5023
▁ጅምር	-11.5023
▁ጉልበት	-11.5023
▁ፋይል	-11.5023
▁fayye	-11.5023
▁gorsu	-11.5023
▁ምስሉን	-11.5023
▁በህመም	-11.5023
▁እራሳችን	-11.5023
▁እያጋጠመ	-11.5023
▁የምታውቀው	-11.5023
▁dhufti	-11.5023
▁laams	-11.5023
▁ማድረጉ	-11.5023
▁ተደስቻለሁ።	-11.5023
▁አብራሪ	-11.5023
▁አይለብስም።	-11.5023
▁ያቁሙ።	-11.5023
▁ፈረሶች	-11.5023
▁harkifanne	-11.5023
▁ታያለህ፧	-11.5023
▁ደረሱ።	-11.5023
▁raawwanne	-11.5023
▁አልጨነቅም።	-11.5023
▁አሳይቱዋል።	-11.5023
▁ይኖረዋል	-11.5023
▁eegumsa	-11.5023
▁kakaase	-11.5023
▁ንጉስ	-11.5023
▁ወዲህ	-11.5023
▁ያደረግነው	-11.5023
▁ድርጅት	-11.5023
▁ፈጠረ።	-11.5023
▁roobne	-11.5023
▁ለመኪና	-11.5023
▁ebla	-11.5023
▁ደቡብ	-11.5023
▁በስንት	-11.5023
▁በተለየ	-11.5023
▁አለዎት።	-11.5023
▁አክስቴ	-11.5023
▁sanadoota	-11.5023
▁ተረጋግ	-11.5023
▁የሁለት	-11.5023
▁የሚያስችል	-11.5023
▁የቀልድ	-11.5023
▁ወዳድ	-11.5023
▁ተናገሩ።	-11.5023
▁rifatte	-11.5023
▁ያደረግከው	-11.5023
▁ለበጎ	-11.5023
▁እንዳሰበ	-11.5023
▁አብራው	-11.5023
▁harkifne	-11.5023
ዝለል	-11.5023
▁ጊዜያዊ	-11.5023
▁የጦር	-11.5023
▁የሰበረው	-11.5023
▁ያብሩ።	-11.5023
▁አርጅቻለሁ	-11.5023
▁ገደብ	-11.5023
▁ይተኛል።	-11.5023
▁ዜማ	-11.5023
▁komatamu	-11.5024
▁ሹካ	-11.5024
ለያይ	-11.5024
▁የሚሻል	-11.5024
▁dhageessaniittu	-11.5024
▁kornee	-11.5024
▁pirezidaantichi	-11.5024
▁የምንበላው	-11.5024
▁ባህሩ	-11.5024
▁አስበህ	-11.5024
▁የምሄደው	-11.5024
▁ለጋስ	-11.5024
▁ጥቅል	-11.5024
▁ምንጣፍ	-11.5024
▁darbachuu	-11.5024
▁deebisne	-11.5024
▁ከውሃ	-11.5024
▁ሞክር።	-11.5025
▁የሚስብ	-11.5025
▁አብሳይ	-11.5026
▁ጭራ	-11.5027
▁ከሌላ	-11.5027
▁አጥንት	-11.5027
▁የሞኝ	-11.5039
▁አንዳች	-11.5044
▁kaffalamu	-11.5045
ቀየሩ	-11.508
▁dhaabadhe	-11.508
▁ተባረ	-11.5094
▁buune	-11.51
▁የተገናኘ	-11.5156
▁fannif	-11.5314
▁hojjat	-11.5342
▁እየሰጠ	-11.5409
ገደሉ	-11.5489
▁pirezidaant	-11.554
ስፖርት	-11.5549
2013	-11.5549
መጽሃፍ	-11.5549
▁dhiiste	-11.5564
▁ciisu	-11.5583
▁ነበረች	-11.5614
▁ምንድነው	-11.5636
▁barumsi	-11.5647
▁jibbisiisa	-11.5648
▁የተበላሸ	-11.5648
L	-11.5648
ሀብሀብ	-11.5648
መጽሃፉ	-11.5648
አደንዛዥ	-11.5648
▁Konkolaat	-11.5648
▁armaan	-11.5648
▁awwaannisni	-11.5648
▁baajata	-11.5648
▁cimnee	-11.5648
▁daraaroonni	-11.5648
▁dhaabbadhu	-11.5648
▁dhufeenya	-11.5648
▁dinqisiifanna	-11.5648
▁dogongora	-11.5648
▁fagaadhu	-11.5648
▁furmaanni	-11.5648
▁gaaddidduu	-11.5648
▁geenya	-11.5648
▁giddugala	-11.5648
▁guwaantii	-11.5648
▁haaromsa	-11.5648
▁haasofnu	-11.5648
▁harvard	-11.5648
▁helikooptar	-11.5648
▁hiyyummaa	-11.5648
▁holqa	-11.5648
▁injifatte	-11.5648
▁iskeetii	-11.5648
▁isteekii	-11.5648
▁jaarsa	-11.5648
▁kiyootoo	-11.5648
▁kophummaa	-11.5648
▁maamiltoonni	-11.5648
▁maarsii	-11.5648
▁poolisoonni	-11.5648
▁quuqama	-11.5648
▁saamtuu	-11.5648
▁saayintistii	-11.5648
▁timaatima	-11.5648
▁xoofoo	-11.5648
▁zeeroo	-11.5648
▁ለመደበቅ	-11.5648
▁ለመጉዳት	-11.5648
▁ለማስታወስ	-11.5648
▁ለጤናዎ	-11.5648
▁ላመሰግናችሁ	-11.5648
▁ልታስተምረኝ	-11.5648
▁መድሃኒቶች	-11.5648
▁ማስረዳት	-11.5648
▁ሳንቲሞች	-11.5648
▁ሳይንቲስቶች	-11.5648
▁ቁልፌን	-11.5648
▁ቁርጥራጮች	-11.5648
▁ቅድሚያ	-11.5648
▁በመንደሩ	-11.5648
▁በማግስቱ	-11.5648
▁በተለምዶ	-11.5648
▁በአብዛኛው	-11.5648
▁በእንቅልፍ	-11.5648
▁በእንደዚህ	-11.5648
▁በወጣትነቱ	-11.5648
▁በየቦታው	-11.5648
▁በየጊዜው	-11.5648
▁በጥቁር	-11.5648
▁በጥቂት	-11.5648
▁ተሰርዟል።	-11.5648
▁ተቁዋርጧል።	-11.5648
▁ተቃራኒ	-11.5648
▁ተከሰተ።	-11.5648
▁ትእዛዞች	-11.5648
▁አለቀሰ።	-11.5648
▁አልነበራቸውም።	-11.5648
▁አልነገርከኝም፧	-11.5648
▁አልወሰንኩም።	-11.5648
▁አሳልፋለሁ።	-11.5648
▁አቁማዳ	-11.5648
▁አቡዋራ	-11.5648
▁አዘዘ።	-11.5648
▁አያስፈልገውም።	-11.5648
▁አያስፈልግዎትም።	-11.5648
▁አጠገቤ	-11.5648
▁እገኛለሁ።	-11.5648
▁እግሮቼ	-11.5648
▁ከጠዋቱ	-11.5648
▁ክስተት	-11.5648
▁ኮረብታ	-11.5648
▁ወንበሮች	-11.5648
▁ወንጀለኛ	-11.5648
▁ውቅያኖስ	-11.5648
▁ዘለለ።	-11.5648
▁ዘራፊው	-11.5648
▁የለባቸውም።	-11.5648
▁የማስታወስ	-11.5648
▁የማግኘት	-11.5648
▁የወረቀት	-11.5648
▁የጠየቀ	-11.5648
▁ያምናሉ።	-11.5648
▁ያደርገኛል።	-11.5648
▁ይጽፋል።	-11.5648
▁ድንጋጤ	-11.5648
▁ጓጉቱዋል።	-11.5648
▁ጠርሙሱ	-11.5648
▁ጠንቃቃ	-11.5648
▁ጽፏል።	-11.5648
▁ፈቃደኞች	-11.5648
▁ፕሮፌሽናል	-11.5648
▁gaggeeffamu	-11.5648
▁hubadha	-11.5648
▁ሆኜ	-11.5648
▁ምክሬን	-11.5648
▁ሞባይል	-11.5648
▁ቤተሰቦች	-11.5648
▁አርፍጄ	-11.5648
▁አትወድም፧	-11.5648
▁ውሾቹ	-11.5648
▁የአንገት	-11.5648
▁ድፍረት	-11.5648
▁raakeeti	-11.5648
▁sararri	-11.5648
▁በባንክ	-11.5648
▁በትርፍ	-11.5648
▁እስረኛ	-11.5648
▁ያስወጣል።	-11.5648
▁koppii	-11.5648
▁taphoota	-11.5648
▁ንፋሱ	-11.5648
▁ይበላሉ፧	-11.5648
▁ደጋፊ	-11.5648
▁ልማዶች	-11.5648
▁አቁሙዋል።	-11.5648
▁tattoo	-11.5648
▁ትግሉን	-11.5648
▁አሳሳቢ	-11.5648
▁እንደሚያደርጉት	-11.5648
▁አያምንም።	-11.5648
▁ፓውንድ	-11.5648
▁አትጨነቅ።	-11.5648
▁ድጋፍ	-11.5648
▁bashannansiisa	-11.5648
▁ማስደሰት	-11.5648
▁እቅዶች	-11.5648
▁ቀጠለች።	-11.5648
▁እድሎች	-11.5648
▁ተጠየቅኩ።	-11.5648
▁ከውስጥ	-11.5648
▁ቀበሮ	-11.5648
▁dhamdham	-11.5648
▁ለመነሳት	-11.5648
▁ከትንሽ	-11.5648
▁kaabin	-11.5648
▁አይጠጣም።	-11.5648
▁ያመጣል።	-11.5648
▁ተረጋጋ።	-11.5648
▁amaninaa	-11.5648
▁ይጠይቁ።	-11.5648
▁አይበላም።	-11.5648
▁መልሰው	-11.5648
▁እንመለስ።	-11.5648
▁እየፈለግን	-11.5648
▁ሀብል	-11.5648
▁cabsin	-11.5648
▁የቼሪ	-11.5648
▁eenyummaa	-11.5648
▁ስእሉ	-11.5648
▁እንደሚወድ	-11.5648
▁ንግዱ	-11.5648
▁ፈርቼ	-11.5648
▁ስፍራ	-11.5648
▁sodaachuu	-11.5648
▁ከሆንክ	-11.5649
▁ከሴት	-11.5649
▁ሰላጣ	-11.5649
▁ላከ።	-11.5649
▁እየደማ	-11.5649
▁አስገደ	-11.5649
▁ሄደ፧	-11.5649
▁ጃዝ	-11.5649
▁garagalche	-11.5649
▁አድማ	-11.5649
▁ሽቦ	-11.5649
ፈትሽ	-11.5649
▁የዋጋ	-11.565
ተቀየረ	-11.565
▁ዱላ	-11.5651
ቃላቱ	-11.5653
እንጀራ	-11.5656
ድርጅቱ	-11.5657
▁gante	-11.5662
ተኮሰ	-11.5672
አንበሳ	-11.5675
▁ልደቱ	-11.5677
roorfattaniittu	-11.5704
sco	-11.5732
▁adab	-11.5783
▁የሚኖሩ	-11.5832
▁baast	-11.584
▁ከመጀመ	-11.5872
▁fiigu	-11.6128
ሳየኝ	-11.615
ሁላችንም	-11.6217
ሀሳብ	-11.6217
▁መብራቱ	-11.6232
▁oofu	-11.6258
▁pirojekt	-11.6262
▁ትችላለህ	-11.6267
▁የሌላ	-11.6272
▁ይውሰዱ	-11.628
▁pool	-11.6282
▁ከሁሉ	-11.6288
▁ምስጢ	-11.6296
▁achuma	-11.6299
▁konkolaachisu	-11.6308
ስፈልገኝ	-11.6313
ሃሳቡ	-11.6314
E	-11.6315
ቤተክርስቲያን	-11.6315
አረጋውያን	-11.6315
ፋይናንስ	-11.6315
▁Hojii	-11.6315
▁bilcheesse	-11.6315
▁bokkaa	-11.6315
▁dabtara	-11.6315
▁dhugde	-11.6315
▁dinqisiisa	-11.6315
▁fiigne	-11.6315
▁giriik	-11.6315
▁hihhir	-11.6315
▁kaarotaa	-11.6315
▁kaarpettii	-11.6315
▁karoorfachuu	-11.6315
▁kibxata	-11.6315
▁kontiraata	-11.6315
▁kumaatamaan	-11.6315
▁kushiinaa	-11.6315
▁laafina	-11.6315
▁mootorri	-11.6315
▁muuziqeessaa	-11.6315
▁ofittoo	-11.6315
▁qilxuu	-11.6315
▁quubsaa	-11.6315
▁rifachiisa	-11.6315
▁somba	-11.6315
▁sulula	-11.6315
▁ulaagaa	-11.6315
▁uwwis	-11.6315
▁xurumbaa	-11.6315
▁ሃይማኖ	-11.6315
▁ህልሞች	-11.6315
▁ለማረጋገጥ	-11.6315
▁ሊነግሩን	-11.6315
▁ልጆቻችን	-11.6315
▁መቅጠር	-11.6315
▁መንቀጥቀጡ	-11.6315
▁መዘጋጀት	-11.6315
▁መዘግየት	-11.6315
▁ማስተዋወቅ	-11.6315
▁ማሽከርከር	-11.6315
▁ሳምንቱን	-11.6315
▁ሳይንቲስት	-11.6315
▁ስለእርስዎ	-11.6315
▁ሽንኩርት	-11.6315
▁ቁጥጥር	-11.6315
▁ቅጠሎቹ	-11.6315
▁በህዝቡ	-11.6315
▁በመደርደሪያው	-11.6315
▁በሬዲዮ	-11.6315
▁በተደጋጋሚ	-11.6315
▁በዩናይትድ	-11.6315
▁በጋዜጣ	-11.6315
▁ተደርጓል።	-11.6315
▁ተገረምኩ።	-11.6315
▁ተጠራጣሪ	-11.6315
▁ቻልኩ።	-11.6315
▁ነቀነቀ	-11.6315
▁አልለመደኝም።	-11.6315
▁አልተሳካም።	-11.6315
▁አልጠበኩም	-11.6315
▁አምቡላንስ	-11.6315
▁አብዛኛዎቹ	-11.6315
▁አይናፋር	-11.6315
▁ኢንሹራንስ	-11.6315
▁እሰጋለሁ።	-11.6315
▁እስከሚቀጥለው	-11.6315
▁እንደፈለገ	-11.6315
▁እንጠብቃለን።	-11.6315
▁እወዳለሁ፣	-11.6315
▁እየቀለድኩ	-11.6315
▁ከሌሎቹ	-11.6315
▁ከብዶኝ	-11.6315
▁ከእህቴ	-11.6315
▁ከፈለጋችሁ	-11.6315
▁ወሰነች።	-11.6315
▁ወታደር	-11.6315
▁ዘግይተሃል	-11.6315
▁ዘግይተናል።	-11.6315
▁ዝርዝሩን	-11.6315
▁ዝርዝሮች	-11.6315
▁የሙዚቃ	-11.6315
▁የምትሄደው፧	-11.6315
▁የበአል	-11.6315
▁የኮሌጅ	-11.6315
▁የድንጋይ	-11.6315
▁የገዛኸው	-11.6315
▁የጥፋተኝነት	-11.6315
▁የፈለጉት	-11.6315
▁ያለእርስዎ	-11.6315
▁ያነባል።	-11.6315
▁ይለብሳል።	-11.6315
▁ይሸጣሉ።	-11.6315
▁ይቁረጡ።	-11.6315
▁ይበልጥ	-11.6315
▁ይታያል።	-11.6315
▁ይነገራል።	-11.6315
▁ይደሰቱ።	-11.6315
▁ይፈስሳል።	-11.6315
▁ደርሰዋል።	-11.6315
▁ገብተህ	-11.6315
▁ግላዊነት	-11.6315
▁ጡንቻ	-11.6315
▁ጤንነት	-11.6315
▁ጽሁፉን	-11.6315
▁dulloomu	-11.6315
▁gilaasi	-11.6315
▁mootichi	-11.6315
▁saaxilu	-11.6315
▁taasifam	-11.6315
▁ርእስ	-11.6315
▁ስላልነበረ	-11.6315
▁ተባረርኩ።	-11.6315
▁ትልልቅ	-11.6315
▁አይከፋኝም።	-11.6315
▁አደረገው።	-11.6315
▁ይመለሳል።	-11.6315
▁dhiirri	-11.6315
▁በልጅነት	-11.6315
▁ተቀምጦ	-11.6315
▁አልተኛሁም።	-11.6315
▁አስጠንቅ	-11.6315
▁አውጥቻለሁ።	-11.6315
▁አፈርኩኝ።	-11.6315
▁ያሳልፋሉ	-11.6315
▁ጂንስ	-11.6315
▁salaada	-11.6315
▁በውስጡ	-11.6315
▁ተናግሮ	-11.6315
▁ትቼዋለሁ።	-11.6315
▁አልሆንኩም።	-11.6315
▁አሳዩኝ።	-11.6315
▁ኢሜል	-11.6315
▁ጥርሴን	-11.6315
▁ሰነዶች	-11.6315
▁foonnicha	-11.6315
▁wabii	-11.6315
▁እንቀጥል።	-11.6315
▁hubanna	-11.6315
▁ከአምስት	-11.6315
▁ይኮራል።	-11.6315
▁ጠንክራ	-11.6315
▁ፈጣሪ	-11.6315
▁ተባረረ።	-11.6315
▁komatt	-11.6315
▁ለትንሽ	-11.6315
▁ባየሁ	-11.6315
▁ካንቺ	-11.6315
▁ፍለጋ	-11.6315
▁ክረምቱ	-11.6315
▁suphe	-11.6315
▁እግሮች	-11.6315
▁ከለከለኝ።	-11.6315
▁አልጠብቅም።	-11.6315
▁ተሳስታችኹዋል።	-11.6315
▁ነቃሁ።	-11.6315
▁ተክሎች	-11.6315
▁ወድቆ	-11.6315
▁ቪዛ	-11.6315
▁ንጥረ	-11.6315
▁ድርግም	-11.6315
ዎታለን።	-11.6315
▁ጀመርን።	-11.6315
▁seentu	-11.6315
▁መረጋጋት	-11.6315
▁የቢሮ	-11.6315
▁አይኖርም።	-11.6315
▁የማይረባ	-11.6315
▁ተምሯል።	-11.6315
▁ገምት።	-11.6315
▁ፋሽን	-11.6315
▁በሰባት	-11.6315
▁አወቀ።	-11.6315
ትንፋሽ	-11.6315
▁በአውሎ	-11.6315
▁saantaa	-11.6315
▁እየተማረ	-11.6315
▁ቀሚሱ	-11.6315
▁በንግድ	-11.6315
ያስፈልጋቸው	-11.6315
▁kakaasu	-11.6315
▁ይሳሉ።	-11.6315
▁አልሰማም።	-11.6315
▁ጥይቶች	-11.6315
▁እቅዳችንን	-11.6315
እነርሱ	-11.6315
▁እየባሰ	-11.6315
▁በጥሬ	-11.6315
▁ብችል	-11.6315
▁ደወሉ	-11.6315
▁ያደረገህ	-11.6315
▁የጀመርኩት	-11.6315
▁የምንሄደው	-11.6316
▁ወጣን።	-11.6316
▁አይጦች	-11.6316
ቃወሙ	-11.6316
▁በመላው	-11.6316
▁ቸኩ	-11.6316
▁የምትበላው	-11.6316
▁jibbitu	-11.6317
ሰበሰቡ	-11.6317
▁bulchuu	-11.6317
▁ጋብቻ	-11.6317
▁ወተቱ	-11.6318
ግባባ	-11.6321
▁የቤቱ	-11.6321
▁የተማረ	-11.6322
ከተለው	-11.6325
▁fuune	-11.6346
▁ከጓደኛ	-11.6376
▁ረስተ	-11.6385
ጀርባዬ	-11.6413
ሀብቱ	-11.648
▁የተሳካ	-11.6855
▁fakkaa	-11.693
▁አብዛኛው	-11.6947
▁oomish	-11.6949
▁fuudhu	-11.6968
▁ንገረኝ	-11.6981
▁በአቅራቢያ	-11.6991
▁አድርግ	-11.6993
▁አላደርግም	-11.6994
▁አይደለችም	-11.6994
▁ተናግሯል	-11.6994
▁ነበረብኝ	-11.6994
▁መምህራ	-11.7022
▁ijoo	-11.7028
▁rukunn	-11.7029
▁tarkaanfat	-11.7029
ኻ	-11.7029
▁dheebot	-11.7029
▁fincil	-11.7029
▁galateeffat	-11.7029
▁mismaara	-11.7029
▁yaabbann	-11.7029
ቁዋቁዋመው	-11.7029
ቴክኖሎጂ	-11.7029
ወላጆቻቸው	-11.7029
▁aansuun	-11.7029
▁abshaalummaa	-11.7029
▁akkaawuntii	-11.7029
▁albamii	-11.7029
▁ambulaansii	-11.7029
▁barcuma	-11.7029
▁bareedinni	-11.7029
▁biriteen	-11.7029
▁biyyoonni	-11.7029
▁claus	-11.7029
▁dargaggeessi	-11.7029
▁ejjennoo	-11.7029
▁fuuldurri	-11.7029
▁gaaffilee	-11.7029
▁gingilchaan	-11.7029
▁hoteelicha	-11.7029
▁injinarii	-11.7029
▁kaadhimummaa	-11.7029
▁kaffalle	-11.7029
▁kalaasikaa	-11.7029
▁kalaqe	-11.7029
▁karoorfate	-11.7029
▁malaammaltummaa	-11.7029
▁niwukilaraa	-11.7029
▁qabeenyi	-11.7029
▁qisaasama	-11.7029
▁rifachiise	-11.7029
▁saamicha	-11.7029
▁sirumayyuu	-11.7029
▁sodaachise	-11.7029
▁sweater	-11.7029
▁ukkaams	-11.7029
▁volkaanoo	-11.7029
▁xiyyaarichi	-11.7029
▁ለተፈጠረው	-11.7029
▁ለደብዳቤ	-11.7029
▁ሊያስከትል	-11.7029
▁ልስምሽ	-11.7029
▁ልነግርሽ	-11.7029
▁ልነግርዎ	-11.7029
▁መልአክ	-11.7029
▁መሰረታዊ	-11.7029
▁መጽሄቶች	-11.7029
▁ሞከረች።	-11.7029
▁ሬስቶራንቱ	-11.7029
▁ሰምተህ	-11.7029
▁ሽርሽር	-11.7029
▁ቁጥሩን	-11.7029
▁ቂጣውን	-11.7029
▁ቆርጫለሁ።	-11.7029
▁በመርከቡ	-11.7029
▁በመዝገበ	-11.7029
▁በማብሰል	-11.7029
▁በማይታመን	-11.7029
▁በነገራችን	-11.7029
▁በአገሪቱ	-11.7029
▁በከፊል	-11.7029
▁በኮንሰርቱ	-11.7029
▁በወጣትነቴ	-11.7029
▁በዘጠኝ	-11.7029
▁በጨረቃ	-11.7029
▁በጸጥታ	-11.7029
▁ተረዳሁ።	-11.7029
▁ተቆልፏል።	-11.7029
▁ተወለደ።	-11.7029
▁ተገረመ።	-11.7029
▁ተጣብቀ	-11.7029
▁ትምህርቱ	-11.7029
▁አሁኑኑ	-11.7029
▁አላመነም።	-11.7029
▁አልመለሰም።	-11.7029
▁አልወደድኩትም።	-11.7029
▁አልጨረስኩም።	-11.7029
▁አሰብክ፧	-11.7029
▁አስታውስ።	-11.7029
▁አሸናፊ	-11.7029
▁አዎንታዊ	-11.7029
▁አይመስልህም፧	-11.7029
▁አድናቂ	-11.7029
▁አጋጠመ	-11.7029
▁እናድርገው።	-11.7029
▁እንደታመመ	-11.7029
▁እያሰብክ	-11.7029
▁እያደረግን	-11.7029
▁እጠቀማለሁ።	-11.7029
▁ከሳምንት	-11.7029
▁ከቤተሰቤ	-11.7029
▁ከቻልኩ	-11.7029
▁ከኮሌጅ	-11.7029
▁ከዋክብት	-11.7029
▁ከጓደኞች	-11.7029
▁ኮንትራ	-11.7029
▁የሚያማምሩ	-11.7029
▁የተቻለኝን	-11.7029
▁የተገነባው	-11.7029
▁የፖሊስ	-11.7029
▁ይመርጣሉ፧	-11.7029
▁ይጓዛል።	-11.7029
▁ገልጿል።	-11.7029
▁ጉድጓዱ	-11.7029
▁ጤንነቱ	-11.7029
▁ጥበበኛ	-11.7029
▁darar	-11.7029
▁ለማሳለፍ	-11.7029
▁ልትረዱኝ	-11.7029
▁ስኪንግ	-11.7029
▁በቀላል	-11.7029
▁ተመልሱዋል።	-11.7029
▁ተማርክ፧	-11.7029
▁ተከታታይ	-11.7029
▁ተወያይተናል።	-11.7029
▁እወስድሃለሁ።	-11.7029
▁እየተመለከትኩ	-11.7029
▁ከቅርብ	-11.7029
▁የመኖሪያ	-11.7029
▁የማወራው	-11.7029
▁የገረጣ	-11.7029
▁ደርሻለሁ።	-11.7029
▁ድርጊት	-11.7029
▁ለማቅረብ	-11.7029
▁በማጥመድ	-11.7029
▁በየወሩ	-11.7029
▁ተቀብያለሁ።	-11.7029
▁ተጨንቁዋል።	-11.7029
▁አልሰማሁም።	-11.7029
▁እንጆሪ	-11.7029
▁እገባልሃለሁ።	-11.7029
▁ከጠበቅኩት	-11.7029
▁ይሰጣሉ።	-11.7029
▁አነስተኛ	-11.7029
▁ጉዳቱ	-11.7029
▁አልተቀበለም።	-11.7029
▁አይፈቅድም።	-11.7029
▁ለብሼ	-11.7029
▁በመመልከት	-11.7029
▁አደረገ፧	-11.7029
▁ገብተዋል።	-11.7029
▁ፈጣኑ	-11.7029
▁ህጎች	-11.7029
▁ተመለስኩ።	-11.7029
▁ቲኬት	-11.7029
▁ድርድሩ	-11.7029
▁ልታየኝ	-11.7029
▁ጥቆማ	-11.7029
▁የምታደርጉት	-11.7029
▁ይተውት።	-11.7029
▁ሙቀቱ	-11.7029
▁ዘጋሁት።	-11.7029
▁ገሞራ	-11.7029
▁አንኳኳ።	-11.7029
▁ጻፍኩት።	-11.7029
▁ለልጁ	-11.7029
▁ወሰድኩት።	-11.7029
▁ማብራት	-11.7029
▁በእርሻ	-11.7029
▁ተነገረኝ።	-11.7029
▁ይሙሉ።	-11.7029
▁አትጠብቅ።	-11.7029
▁ይመጣሉ።	-11.7029
▁barbaachisummaa	-11.7029
▁ይኖሩ	-11.7029
▁aliis	-11.7029
▁ሄድክ፧	-11.7029
▁አላቸው፧	-11.7029
▁nuts	-11.7029
▁እጆቹን	-11.7029
▁ነፍሰ	-11.7029
▁filanne	-11.7029
▁ነፈሰ	-11.7029
▁አለች፧	-11.7029
▁mooticha	-11.7029
▁ገዛህ፧	-11.7029
▁ላሞች	-11.7029
▁ተመታ።	-11.7029
▁Ishee	-11.7029
ጨርሰው	-11.7029
▁ከዛፍ	-11.7029
▁ወለል	-11.703
▁pilaa	-11.703
▁ረክቻለሁ	-11.703
▁ምርቶች	-11.703
▁መላጣ	-11.703
▁gooti	-11.703
▁የምንሰራው	-11.703
ተቀመጠ	-11.703
▁አሻራ	-11.703
ታዳጊ	-11.7031
▁kunuunse	-11.7032
▁ማንቂያው	-11.7032
▁የተናገርኩት	-11.7032
▁የሰራሁት	-11.7033
ያዳምጡ	-11.7036
ከፈሉ	-11.7037
▁kaastee	-11.7039
▁ሊፍቱ	-11.7041
መምጣቱ	-11.7042
ትቀይር	-11.7082
ሰከርኩ	-11.7112
bir	-11.7263
ብስክሌቴ	-11.727
ተወለድኩ	-11.7285
▁ጠይቃ	-11.7356
▁uwwifam	-11.7398
▁gabaasu	-11.7415
▁አዋቂ	-11.7423
ብስክሌቱ	-11.7435
▁fufu	-11.7571
▁murteessiteett	-11.7575
▁መርከቡ	-11.7649
▁ሁለታችሁ	-11.7683
አፍንጫ	-11.77
ማስተማር	-11.77
addunyaa	-11.77
በእርግጥ	-11.77
▁kolfu	-11.7754
▁ትወዳለህ	-11.7785
▁ይወስዳ	-11.7793
▁dulloome	-11.7795
ቫለንታይን	-11.7798
ዝናባማ	-11.7798
▁agarsiifta	-11.7798
▁ammuma	-11.7798
▁awtoobisii	-11.7798
▁baqalaa	-11.7798
▁barbaacha	-11.7798
▁beelofte	-11.7798
▁buttooni	-11.7798
▁dhabamsiis	-11.7798
▁dhaqxee	-11.7798
▁dhoww	-11.7798
▁dhufnu	-11.7798
▁dhugda	-11.7798
▁dirqiin	-11.7798
▁doktooronni	-11.7798
▁duumessi	-11.7798
▁faayinaansii	-11.7798
▁hiriyyoonni	-11.7798
▁hospitaalli	-11.7798
▁hundeeffame	-11.7798
▁ilbiisota	-11.7798
▁inchii	-11.7798
▁injifatu	-11.7798
▁istiroberii	-11.7798
▁kamittiyyuu	-11.7798
▁kilaawus	-11.7798
▁kiyyaatti	-11.7798
▁maanguddoota	-11.7798
▁michummaa	-11.7798
▁misooms	-11.7798
▁omishni	-11.7798
▁paawundii	-11.7798
▁poker	-11.7798
▁soogiddi	-11.7798
▁sukkaarri	-11.7798
▁vegetarian	-11.7798
▁walgahicha	-11.7798
▁yohaannis	-11.7798
▁york	-11.7798
▁ሁላችንንም	-11.7798
▁ለህይወት	-11.7798
▁ለመቁዋቁዋም	-11.7798
▁ለማውጣት	-11.7798
▁ለእንደዚህ	-11.7798
▁ላመሰግንህ	-11.7798
▁ልንገራችሁ።	-11.7798
▁መቆለፍ	-11.7798
▁መንገዶቹ	-11.7798
▁መከረኝ።	-11.7798
▁መደብሮች	-11.7798
▁መገንባት	-11.7798
▁ማጉረምረም	-11.7798
▁ረስቼው	-11.7798
▁ስለወደፊቱ	-11.7798
▁ሸረሪቶችን	-11.7798
▁ቆስለዋል።	-11.7798
▁በምድጃ	-11.7798
▁በራሳችን	-11.7798
▁በሰሜን	-11.7798
▁በታላቅ	-11.7798
▁በታክሲ	-11.7798
▁በዜናው	-11.7798
▁በዝግታ	-11.7798
▁ቤተመንግስት	-11.7798
▁ተለዋዋጭ	-11.7798
▁ተሞልቱዋል።	-11.7798
▁ተጣብቁዋል።	-11.7798
▁ቲዎሪ	-11.7798
▁ታገኛለህ።	-11.7798
▁ትጨነቃለች።	-11.7798
▁ቻይና	-11.7798
▁ነበራችሁ፧	-11.7798
▁ነዋሪዎች	-11.7798
▁አለቀስኩ።	-11.7798
▁አለባችሁ።	-11.7798
▁አላነበብኩም።	-11.7798
▁አላገኘሁትም።	-11.7798
▁አልሆነችም።	-11.7798
▁አልረካም።	-11.7798
▁አልነበርክም	-11.7798
▁አማካይ	-11.7798
▁አርጅቱዋል።	-11.7798
▁አስደነቀኝ።	-11.7798
▁አቀባበል	-11.7798
▁አነበበ።	-11.7798
▁አውቃታለሁ።	-11.7798
▁አገኘኸው፧	-11.7798
▁ኤርፖርት	-11.7798
▁እለብሳለሁ።	-11.7798
▁እስትንፋስ	-11.7798
▁እንስራ።	-11.7798
▁እንዳልተፈጠረ	-11.7798
▁እንድትረዳኝ	-11.7798
▁እጀምራለሁ።	-11.7798
▁እጓጓለሁ።	-11.7798
▁ከመሄዴ	-11.7798
▁ከእሳት	-11.7798
▁ከወላጆችህ	-11.7798
▁ከዝርዝሩ	-11.7798
▁ክላሲካል	-11.7798
▁ኮምፒተ	-11.7798
▁ወንድማማቾች	-11.7798
▁ወንጀሉ	-11.7798
▁ውጤቶቹ	-11.7798
▁ዝሆኖች	-11.7798
▁ዝንባሌ	-11.7798
▁የሁሉም	-11.7798
▁የሳይንስ	-11.7798
▁የቻልኩትን	-11.7798
▁የአልኮል	-11.7798
▁የአክሲዮን	-11.7798
▁የእንስሳት	-11.7798
▁የፖለቲካ	-11.7798
▁የፖስታ	-11.7798
▁ያሳልፋል።	-11.7798
▁ያሳስበኛል።	-11.7798
▁ያስታውሱ።	-11.7798
▁ያስከፍላል።	-11.7798
▁ያደረጋችሁት	-11.7798
▁ይኸውና	-11.7798
▁ይጠበቃል።	-11.7798
▁ይጨምሩ።	-11.7798
▁ይጨምራል።	-11.7798
▁ዳንሰኛ	-11.7798
▁ጋዜጠኛ	-11.7798
▁ጎምዛዛ	-11.7798
▁ጓጉቻለሁ።	-11.7798
▁ጸሀያማ	-11.7798
▁ፈልገህ	-11.7798
▁ፒጃማ	-11.7798
▁ፖለቲከኛ	-11.7798
▁ፖለቲከኞች	-11.7798
ጠባበቅ	-11.7798
▁hawwe	-11.7798
▁ogbarruu	-11.7798
▁qisaasn	-11.7798
▁reeffi	-11.7798
▁መታወቂያ	-11.7798
▁ማእበሉ	-11.7798
▁ሱሰኛ	-11.7798
▁ሲያደርግ	-11.7798
▁በጥልቅ	-11.7798
▁ተሰጥኦ	-11.7798
▁አወለቀ።	-11.7798
▁ከባህር	-11.7798
▁የምታወራው	-11.7798
▁የጻፈው	-11.7798
▁ፈጅቱዋል።	-11.7798
▁ለሌሎች	-11.7798
▁በተወሰነ	-11.7798
▁ተመራማሪ	-11.7798
▁እርሳሶች	-11.7798
▁እወደዋለሁ።	-11.7798
▁የነገርከኝ	-11.7798
▁ግልቢያ	-11.7798
▁basaasaa	-11.7798
▁godaan	-11.7798
▁shira	-11.7798
▁ለማግባት	-11.7798
▁ተቀመጥኩ።	-11.7798
▁የባንክ	-11.7798
▁ጨርሶ	-11.7798
▁jirma	-11.7798
▁ለአምስት	-11.7798
▁ሳላውቅ	-11.7798
▁ተቀመጠች።	-11.7798
▁አልለብስም።	-11.7798
▁የመማሪያ	-11.7798
▁ደርዘን	-11.7798
▁ገዳዩ	-11.7798
▁ለመዝናናት	-11.7798
▁መቆጠብ	-11.7798
▁መኖሪያ	-11.7798
▁ተማርኩ።	-11.7798
▁ተደርጎ	-11.7798
▁ነክሶ	-11.7798
▁እማራለሁ።	-11.7798
▁እንዳልሆንክ	-11.7798
▁guunne	-11.7798
▁seennu	-11.7798
▁ላድርግ	-11.7798
▁መንደሩ	-11.7798
▁ቁስሉ	-11.7798
▁ለልጆቹ	-11.7798
▁burjaajess	-11.7798
▁bofti	-11.7798
▁ስለእሱ	-11.7798
▁እየገዛሁ	-11.7798
▁ፈርሱዋል።	-11.7798
▁ለማንሳት	-11.7798
▁ሰራዊቱ	-11.7798
▁አደረጉ፧	-11.7798
▁ጥገኛ	-11.7798
▁ቀጣዩ	-11.7798
▁አልሄደም።	-11.7798
▁የጆሮ	-11.7798
▁ይነዳል።	-11.7798
▁ሰምተናል።	-11.7798
▁ይነሳል።	-11.7798
▁በሺዎች	-11.7798
▁እየሰማሁ	-11.7798
መተኮስ	-11.7798
▁እንደቀድሞው	-11.7798
▁ያዙት።	-11.7798
▁ስፌት	-11.7798
▁ጠበቀች	-11.7798
▁ተኝተዋል።	-11.7798
▁እርግጥ	-11.7798
▁dhabda	-11.7798
▁ተኝቻለሁ።	-11.7798
▁እንበል።	-11.7798
▁ቀድማ	-11.7798
▁ተኝተው	-11.7798
▁ለማለፍ	-11.7798
▁ነፋስ	-11.7798
▁በልተህ	-11.7798
▁ጠርዝ	-11.7798
▁ገለባ	-11.7799
ጠየቁት	-11.7799
▁እንዳሰብ	-11.7799
▁በአካል	-11.7799
▁ከልጄ	-11.7799
▁boonna	-11.7799
▁ይጠቅማል	-11.7799
▁ልጃቸው	-11.7799
▁እየወሰደ	-11.7799
▁የሚናገሩት	-11.7799
ናውቀው	-11.7799
▁menu	-11.78
▁የጻፍኩት	-11.78
▁jiraachis	-11.7801
▁የአባቱ	-11.7802
ተጠየቀ	-11.7803
ንጫወት	-11.7812
▁yakkamt	-11.7827
▁ተናገረ	-11.7911
▁ከንቲባ	-11.7998
ሚወዱ	-11.8034
▁hidhadh	-11.8308
▁cir	-11.838
ጓደኛዬ	-11.8457
መጨረሻ	-11.8474
▁argatteett	-11.8489
ጉንፋን	-11.8533
▁dabaree	-11.857
▁ሰርተናል	-11.8578
▁እሆናለሁ	-11.8597
▁ይመስለኛል	-11.8597
ዤ	-11.8617
▁በፈረንሳይ	-11.8628
▁ሰልችቶ	-11.8629
▁gaazexeessaa	-11.8631
▁hiyyeettii	-11.8631
▁kaffalte	-11.8631
▁komatu	-11.8631
▁ማብሰያ	-11.8631
▁በማስታወሻ	-11.8631
▁ድፍረቱ	-11.8631
▁ጉልበቱ	-11.8631
▁ጉሮሮ	-11.8631
መካከለኛው	-11.8631
ስፓኒሽ	-11.8631
ዲሞክራሲ	-11.8631
ጌጣጌጥ	-11.8631
”	-11.8631
▁akeeke	-11.8631
▁appaartaamaa	-11.8631
▁ariifanne	-11.8631
▁asheeta	-11.8631
▁awwaannisaa	-11.8631
▁caamsaa	-11.8631
▁cimanii	-11.8631
▁dafqi	-11.8631
▁damma	-11.8631
▁dhaabbanne	-11.8631
▁dhaabichi	-11.8631
▁dhaabni	-11.8631
▁dhimmoota	-11.8631
▁dhiqe	-11.8631
▁dhufeenyi	-11.8631
▁dhufna	-11.8631
▁fuudhi	-11.8631
▁gibirri	-11.8631
▁intarneetii	-11.8631
▁istookii	-11.8631
▁jajjabina	-11.8631
▁keessummoonni	-11.8631
▁kilabicha	-11.8631
▁kireeffat	-11.8631
▁maashaalee	-11.8631
▁mimmiidhagoo	-11.8631
▁miseensonni	-11.8631
▁mudanne	-11.8631
▁mufanne	-11.8631
▁oosaakaa	-11.8631
▁poolisichi	-11.8631
▁puzzle	-11.8631
▁qaccee	-11.8631
▁qananiin	-11.8631
▁qubni	-11.8631
▁ragga	-11.8631
▁shaampaayin	-11.8631
▁tartiiba	-11.8631
▁uffannee	-11.8631
▁yaabbadhee	-11.8631
▁zayita	-11.8631
▁ሀገሪቱ	-11.8631
▁ለመተርጎም	-11.8631
▁ለመወያየት	-11.8631
▁ለመግደል	-11.8631
▁ለሙዚቃ	-11.8631
▁መሸከም	-11.8631
▁መቁጠር	-11.8631
▁ሚስጥሮች	-11.8631
▁ሚኒስትሩ	-11.8631
▁ማህበራዊ	-11.8631
▁ማሳወቅ	-11.8631
▁ረዥም	-11.8631
▁ራሳቸውን	-11.8631
▁ቀጠልኩ።	-11.8631
▁ቆርጧል።	-11.8631
▁ቆየን።	-11.8631
▁በሆቴሉ	-11.8631
▁በመዘጋጀት	-11.8631
▁በሰፊው	-11.8631
▁በቦታው	-11.8631
▁በአሮጌ	-11.8631
▁በአስቸኳይ	-11.8631
▁በአውሮፕላኑ	-11.8631
▁በወቅቱ	-11.8631
▁በዙሪያው	-11.8631
▁በጥቂቱ	-11.8631
▁በፈገግታ	-11.8631
▁ብእሬን	-11.8631
▁ቦምቡ	-11.8631
▁ተለያየን።	-11.8631
▁ተምሬአለሁ።	-11.8631
▁ተበሳጨሁ።	-11.8631
▁ተበሳጨ።	-11.8631
▁ተብሉዋል።	-11.8631
▁ተጀምሯል።	-11.8631
▁ተፈጥሮ	-11.8631
▁ትምህርቶች	-11.8631
▁ትሰጠኛለህ፧	-11.8631
▁ትእይንት	-11.8631
▁ነፍሳት	-11.8631
▁ንገራቸው።	-11.8631
▁አለቀሰች።	-11.8631
▁አልቀረም።	-11.8631
▁አሰልጣኝ	-11.8631
▁አስተካክሉዋል።	-11.8631
▁አስተዳዳሪ	-11.8631
▁አቅርቡዋል።	-11.8631
▁አታስቀምጡ።	-11.8631
▁አነበብኩት።	-11.8631
▁አክባሪ	-11.8631
▁አወቅክ፧	-11.8631
▁አይገርመኝም።	-11.8631
▁አይጨነቁ	-11.8631
▁አይፈልጉም።	-11.8631
▁እልክላችኹዋለሁ።	-11.8631
▁እመለከታለሁ።	-11.8631
▁እናገኛለን።	-11.8631
▁እንቆቅልሽ	-11.8631
▁እንደማንኛውም	-11.8631
▁እንደበዛብህ	-11.8631
▁እየተሻሻለ	-11.8631
▁እያደረግሁ	-11.8631
▁እጽፋለሁ።	-11.8631
▁ከመቼውም	-11.8631
▁ከመንገዱ	-11.8631
▁ከጓደኞቹ	-11.8631
▁ካገኘሁ	-11.8631
▁ወስነናል።	-11.8631
▁ውይይቱ	-11.8631
▁ውጤቶች	-11.8631
▁ውጥረት	-11.8631
▁የሃይል	-11.8631
▁የሌሊት	-11.8631
▁የመቀመጫ	-11.8631
▁የሚያስጨንቅ	-11.8631
▁የሚያስፈልገን	-11.8631
▁የምጠይቀው	-11.8631
▁የሞባይል	-11.8631
▁የቡዋንቡዋ	-11.8631
▁የተከሰተው	-11.8631
▁የቸኮሌት	-11.8631
▁የአውሮፕላን	-11.8631
▁ያውቀዋል።	-11.8631
▁ይሮጣል።	-11.8631
▁ይኑርዎት።	-11.8631
▁ገዝተሃል፧	-11.8631
▁ጠንቅቆ	-11.8631
▁ጠየቀን።	-11.8631
▁ጥንቸሎች	-11.8631
▁buufanni	-11.8631
▁komatin	-11.8631
▁qacart	-11.8631
▁qulqulleessaa	-11.8631
▁መሀረብ	-11.8631
▁መውደድ	-11.8631
▁ሞክሯል።	-11.8631
▁ሰበረሁ።	-11.8631
▁በልጆች	-11.8631
▁በዋሻው	-11.8631
▁ባቡሮች	-11.8631
▁ቦምብ	-11.8631
▁ተጋባሁ።	-11.8631
▁ተጓዝን።	-11.8631
▁ነርቭ	-11.8631
▁አምጣ።	-11.8631
▁እጠብቅሃለሁ።	-11.8631
▁ከማንኛውም	-11.8631
▁የመንግስት	-11.8631
▁የተራራው	-11.8631
▁ፕላኔት	-11.8631
▁qaamni	-11.8631
▁yaaddessu	-11.8631
▁ሀገራት	-11.8631
▁መንካት	-11.8631
▁ቀለበቱ	-11.8631
▁ተጋባን።	-11.8631
▁ነርሱዋ	-11.8631
▁አሉታዊ	-11.8631
▁አያገኙም።	-11.8631
▁ከባንክ	-11.8631
▁የመግቢያ	-11.8631
▁የቤተሰብ	-11.8631
▁የጠበኩት	-11.8631
▁መንግስታ	-11.8631
▁በሚሆንበት	-11.8631
▁ተቀመጡ።	-11.8631
▁ትቆያለህ	-11.8631
▁ትነሳለች።	-11.8631
▁ከእናቱ	-11.8631
▁የሚያስፈልግህ	-11.8631
▁ያልገባኝ	-11.8631
▁ግርግር	-11.8631
▁ግባልኝ።	-11.8631
▁በግቢው	-11.8632
▁ተረድቱዋል።	-11.8632
▁ትሰራለህ፧	-11.8632
▁አንሄድም፧	-11.8632
▁አደረገኝ።	-11.8632
▁geessiseera	-11.8632
▁qorroon	-11.8632
▁መያዣ	-11.8632
▁በረረ።	-11.8632
▁ንክሻ	-11.8632
▁አሊቢ	-11.8632
▁ተመላሽ	-11.8632
▁ያመርታል።	-11.8632
▁walsimu	-11.8632
▁ስለረዱኝ	-11.8632
▁ከቻልክ	-11.8632
▁ይማራሉ።	-11.8632
▁በእቅዱ	-11.8632
▁citaa	-11.8632
▁ሲወጡ	-11.8632
▁ይወጣል፧	-11.8632
▁ሊያደርጉት	-11.8632
▁jalqabdu	-11.8632
▁ቼኮች	-11.8632
▁የተከበረ	-11.8632
▁toonii	-11.8632
▁መፈረም	-11.8632
▁ታየች።	-11.8632
▁አባባል	-11.8632
▁ከእህቱ	-11.8632
▁አላሰበም	-11.8632
▁በሰላሳ	-11.8632
▁ቀረች።	-11.8632
▁የእናቴ	-11.8632
ተጀመረ	-11.8632
▁bilchaat	-11.8632
▁ሚስቴ	-11.8632
ስደተኞች	-11.8632
jerk	-11.8633
▁hirmaadh	-11.8633
▁tasgabbeessu	-11.8634
ገኛቸው	-11.8634
▁አዳምጡ	-11.8636
▁qooddat	-11.8638
▁አልቆርጥም	-11.8639
▁konkolaachift	-11.8662
▁ingiliffa	-11.9137
▁murteessu	-11.9173
▁gammachiis	-11.9274
ከንቲባው	-11.9308
I	-11.9442
dhugaadha	-11.9442
አውቶቡሱ	-11.9442
▁boqonn	-11.9447
▁ደንቦቹ	-11.9458
▁ቁልፉ	-11.9458
▁እንሄዳለን	-11.9506
ምትናገረው	-11.9513
አደርገዋለሁ	-11.954
▁ኢንቨስት	-11.954
▁shallag	-11.954
▁dheebodh	-11.9541
▁caqas	-11.9541
▁cuupham	-11.9541
▁dargaggeettii	-11.9541
▁misirroo	-11.9541
▁siwiizarlaand	-11.9541
▁ዝግጅቱ	-11.9541
ooloojii	-11.9541
መጽሀፎቼ	-11.9541
ኮንፈረንስ	-11.9541
ዳይሬክተ	-11.9541
ግዴለሽነት	-11.9541
▁adeemsa	-11.9541
▁adoolessa	-11.9541
▁albuuda	-11.9541
▁ariitiidhaan	-11.9541
▁arjaa	-11.9541
▁bathtub	-11.9541
▁bluff	-11.9541
▁burqaa	-11.9541
▁chikaagoo	-11.9541
▁daddarba	-11.9541
▁dhiphinni	-11.9541
▁dhiyaachaa	-11.9541
▁dhukaasu	-11.9541
▁dimokiraasii	-11.9541
▁dulloomne	-11.9541
▁gargaari	-11.9541
▁gargaarra	-11.9541
▁gargaarru	-11.9541
▁giddugaleessa	-11.9541
▁guddifachaa	-11.9541
▁gurmaa	-11.9541
▁hawwina	-11.9541
▁juice	-11.9541
▁kiniinii	-11.9541
▁lukkuu	-11.9541
▁maamila	-11.9541
▁milkooft	-11.9541
▁minjaalichaa	-11.9541
▁nagahee	-11.9541
▁obboleettonni	-11.9541
▁olompikii	-11.9541
▁qaawwa	-11.9541
▁rasaasni	-11.9541
▁rock	-11.9541
▁saanwich	-11.9541
▁shaampiyoonaa	-11.9541
▁shaarkii	-11.9541
▁shakke	-11.9541
▁teeknooloojii	-11.9541
▁turistoonni	-11.9541
▁vaayirasii	-11.9541
▁vitaamin	-11.9541
▁yaabbate	-11.9541
▁yaaddofne	-11.9541
▁ለማጽዳት	-11.9541
▁ለቤተሰቤ	-11.9541
▁ለአንዴና	-11.9541
▁ለወላጆቼ	-11.9541
▁ሊነግረኝ	-11.9541
▁ላነጋግር	-11.9541
▁ልስጥህ።	-11.9541
▁ልቦለዶች	-11.9541
▁ልታናግረኝ	-11.9541
▁መልካሙን	-11.9541
▁መስመሮች	-11.9541
▁መክሰስ	-11.9541
▁መዋጋት	-11.9541
▁መጫወቻ	-11.9541
▁መጽሀፎች	-11.9541
▁ሚሊየነር	-11.9541
▁ማስተዳደር	-11.9541
▁ማከናወን	-11.9541
▁ረድቶኛል።	-11.9541
▁ሪከርድ	-11.9541
▁ስላስቸገርኩህ	-11.9541
▁ስትጠልቅ	-11.9541
▁ሽኮኮ	-11.9541
▁ቅናሹን	-11.9541
▁ቆየሁ።	-11.9541
▁በመደበኛነት	-11.9541
▁በሚያምር	-11.9541
▁በሚያሳዝን	-11.9541
▁በማሽከርከር	-11.9541
▁በማጽዳት	-11.9541
▁በሰማያዊ	-11.9541
▁በሳምንቱ	-11.9541
▁በቅርበት	-11.9541
▁በአቡዋራ	-11.9541
▁በአግባቡ	-11.9541
▁በወረቀት	-11.9541
▁በየሁለት	-11.9541
▁በፖሊስ	-11.9541
▁ቡድኖች	-11.9541
▁ተላላፊ	-11.9541
▁ተሸናፊ	-11.9541
▁ተሻሽሉዋል።	-11.9541
▁ተአምር	-11.9541
▁ተጎድቱዋል።	-11.9541
▁ቲማቲሞች	-11.9541
▁ቲኬቶች	-11.9541
▁ታዳሚው	-11.9541
▁ትርኢቱ	-11.9541
▁ትኖራለች።	-11.9541
▁ትወስዳለህ፧	-11.9541
▁ትጠብቃለች።	-11.9541
▁ትጠይቃለህ	-11.9541
▁ትጫወታለች።	-11.9541
▁ቻይንኛ	-11.9541
▁ንገሩት።	-11.9541
▁አላስፈለገኝም።	-11.9541
▁አላነበብኩትም።	-11.9541
▁አልተመቸኝም።	-11.9541
▁አልተቀበለችም።	-11.9541
▁አልነገርከኝም።	-11.9541
▁አልወድሽም።	-11.9541
▁አልፈለገችም።	-11.9541
▁አልፈቅድልህም።	-11.9541
▁አሮጊት	-11.9541
▁አሳለፍን።	-11.9541
▁አስተካክላለሁ።	-11.9541
▁አስተዋጽኦ	-11.9541
▁አስኪያጁ	-11.9541
▁አስደንጋጭ	-11.9541
▁አታውራ።	-11.9541
▁አትክፈት።	-11.9541
▁አውልቅ።	-11.9541
▁አዛውንት	-11.9541
▁አደርገው	-11.9541
▁እመክራችኹዋለሁ።	-11.9541
▁እናስባለን።	-11.9541
▁እንሞታለን።	-11.9541
▁እንደምታደርግ	-11.9541
▁እንዳያመልጠኝ	-11.9541
▁እየተጫወትኩ	-11.9541
▁እያደረግኩ	-11.9541
▁እጠባለሁ።	-11.9541
▁እጨርሳለሁ።	-11.9541
▁ኦክቶበር	-11.9541
▁ከሁለተኛ	-11.9541
▁ከመውጣት	-11.9541
▁ከሶፋው	-11.9541
▁ከእናቴ	-11.9541
▁ከግድግዳው	-11.9541
▁ከጨለማ	-11.9541
▁ከፈረንሳይ	-11.9541
▁ኪዮቶ	-11.9541
▁ወረቀቶች	-11.9541
▁ወስነሃል፧	-11.9541
▁ወደኹዋላ	-11.9541
▁ወድቀዋል።	-11.9541
▁የለበሱት	-11.9541
▁የሚገኘው	-11.9541
▁የማይታሰብ	-11.9541
▁የምጽፈው	-11.9541
▁የተደናገጠ	-11.9541
▁የተገረመ	-11.9541
▁የእናንተ	-11.9541
▁የጋብቻ	-11.9541
▁የጠየቅከውን	-11.9541
▁የጽህፈት	-11.9541
▁የፊደል	-11.9541
▁ይርቃል፧	-11.9541
▁ይታጠፉ።	-11.9541
▁ይጀምራሉ።	-11.9541
▁ጉባኤው	-11.9541
▁ጉድለት	-11.9541
▁ጎረቤቶቼ	-11.9541
▁ጣሊያን	-11.9541
▁ጥንቸል	-11.9541
▁ፕሬዝዳንት	-11.9541
▁ፖሊሶቹ	-11.9541
ቢዝነስ	-11.9541
ቸኮልኩ	-11.9541
▁biraazil	-11.9541
▁cuqaas	-11.9541
▁fufiinsa	-11.9541
▁fufnu	-11.9541
▁mootittii	-11.9541
▁መብረቅ	-11.9541
▁መግደል	-11.9541
▁ማሞቂያ	-11.9541
▁ረሃብ	-11.9541
▁ቃሌን	-11.9541
▁በቡድን	-11.9541
▁በችግር	-11.9541
▁በጥብቅ	-11.9541
▁በፓርክ	-11.9541
▁ተማረ።	-11.9541
▁ተቀምጬ	-11.9541
▁አለመቻሉ	-11.9541
▁አረፈ።	-11.9541
▁አትመልከት።	-11.9541
▁አትነግረኝም፧	-11.9541
▁እንደማያውቅ	-11.9541
▁ከደመና	-11.9541
▁የአክስቴ	-11.9541
▁የገባሁትን	-11.9541
▁ያስከትላል	-11.9541
▁ደክመዋል።	-11.9541
▁gabaabsi	-11.9541
▁himtaa	-11.9541
▁ሊኖረው	-11.9541
▁ሊያደርግ	-11.9541
▁ምስክር	-11.9541
▁በኋላ	-11.9541
▁ተወስዷል።	-11.9541
▁ትጠጣለህ፧	-11.9541
▁ነግረውታል፧	-11.9541
▁አልተሰማኝም።	-11.9541
▁አትቆይም፧	-11.9541
▁አደረገች።	-11.9541
▁አጥጋቢ	-11.9541
▁እስከዚያ	-11.9541
▁እኖራለሁ።	-11.9541
▁fagaann	-11.9541
▁sodaachift	-11.9541
▁ትኖራለህ	-11.9541
▁አትጫወት	-11.9541
▁የምንሄድበት	-11.9541
▁shubbistu	-11.9541
▁ሀላፊ	-11.9541
▁ለእርሱ	-11.9541
▁በደርዘን	-11.9541
▁ወገኖች	-11.9541
▁ይሰማዎታል።	-11.9541
▁ቅመም	-11.9541
▁አሉዎት።	-11.9541
▁ወላጅ	-11.9541
▁የፉጂ	-11.9541
▁ከፊታችን	-11.9541
▁ጥርሱን	-11.9541
ወረወር	-11.9541
▁መጣችሁ።	-11.9541
▁ሞክሮ	-11.9541
▁ኤሊዎች	-11.9541
▁Hund	-11.9541
▁Wal	-11.9541
▁ደሴቱ	-11.9541
▁siidaa	-11.9541
▁himti	-11.9541
▁ልጃችን	-11.9541
▁reeffa	-11.9542
▁oomishaalee	-11.9542
▁taasifn	-11.9542
ትጠብቀኝ	-11.9543
▁pro	-11.9544
▁himatte	-11.9546
▁filadhe	-11.9568
▁baaloon	-11.9569
▁salphisa	-11.9571
▁dhiphatte	-11.959
▁banatt	-11.9634
▁siyaasa	-11.987
dhaggeeffattoota	-11.9873
▁dandeesseett	-11.9925
አዋቂዎች	-12.0007
▁mirkaneessu	-12.0252
▁daldal	-12.0253
▁cimt	-12.0495
▁በፓርቲ	-12.0503
▁ይጀምራል	-12.0505
▁መከረችው	-12.0506
▁ትወዳለች	-12.0506
▁አዝናለሁ	-12.0506
▁እመኛለሁ	-12.0506
ንሸራተት	-12.0529
▁አስቀምጠ	-12.0537
እቅዳችን	-12.054
V	-12.0541
ሃሎዊን	-12.0541
ስዊዘርላንድ	-12.0541
ሸማቀቅ	-12.0541
ብሪታንያ	-12.0541
ቲማቲም	-12.0541
ትመለከት	-12.0541
ንከባከበው	-12.0541
እንቁራሪት	-12.0541
ወዛወዝ	-12.0541
ያቁዋርጡ	-12.0541
ደሴቲቱ	-12.0541
ፋርማሲ	-12.0541
፤	-12.0541
▁Rakkoo	-12.0541
▁Wanti	-12.0541
▁agarsiisni	-12.0541
▁ampuulii	-12.0541
▁balbaloonni	-12.0541
▁barsiifam	-12.0541
▁daawwadhu	-12.0541
▁dhaamsi	-12.0541
▁dhiisne	-12.0541
▁dhukaasn	-12.0541
▁dinqisiifata	-12.0541
▁doolfiin	-12.0541
▁doorsisaa	-12.0541
▁faalless	-12.0541
▁fudhanna	-12.0541
▁gaggeeffame	-12.0541
▁gammadnu	-12.0541
▁gartokkoon	-12.0541
▁haaloowiinii	-12.0541
▁hamburger	-12.0541
▁hiriyyummaan	-12.0541
▁hiyyeeyyii	-12.0541
▁indaastirii	-12.0541
▁july	-12.0541
▁kaarboon	-12.0541
▁kaatolikii	-12.0541
▁kiriimii	-12.0541
▁kolfisiise	-12.0541
▁laaptooppii	-12.0541
▁liinkan	-12.0541
▁lootarii	-12.0541
▁mararfat	-12.0541
▁miseensota	-12.0541
▁mufannaa	-12.0541
▁pilaambaa	-12.0541
▁piroofeesara	-12.0541
▁qarqarri	-12.0541
▁qindeessuu	-12.0541
▁qisaasessin	-12.0541
▁raagbii	-12.0541
▁raawwatiinsa	-12.0541
▁roobootii	-12.0541
▁rooziin	-12.0541
▁saamtichi	-12.0541
▁saayintistoonni	-12.0541
▁suukanneessa	-12.0541
▁tuffachuu	-12.0541
▁uggura	-12.0541
▁ulfaatinni	-12.0541
▁waardiyyaa	-12.0541
▁xiyyeeffadh	-12.0541
▁xuxxuqe	-12.0541
▁ሃብታም	-12.0541
▁ለመቀጠል	-12.0541
▁ለመደገፍ	-12.0541
▁ለሚቀጥለው	-12.0541
▁ለምጄዋለሁ።	-12.0541
▁ለእናንተ	-12.0541
▁ለወላጆቹ	-12.0541
▁ለገንዘብ	-12.0541
▁ላፕቶፕ	-12.0541
▁ልትነግሪኝ	-12.0541
▁ልትገድለኝ	-12.0541
▁ልደውልልዎ	-12.0541
▁ሎተሪ	-12.0541
▁መንሸራተቻ	-12.0541
▁መፈጸም	-12.0541
▁ማረጋገጫ	-12.0541
▁ማእከል	-12.0541
▁ማክሰኞ	-12.0541
▁ምርምር	-12.0541
▁ምንድናቸው፧	-12.0541
▁ረቡእ	-12.0541
▁ሰካራም	-12.0541
▁ሱቆች	-12.0541
▁ሲከሰት	-12.0541
▁ስለእናንተ	-12.0541
▁ሸረሪት	-12.0541
▁ሻምፑ	-12.0541
▁ሻምፓኝ	-12.0541
▁ሽያጭ	-12.0541
▁ሾልኮ	-12.0541
▁ቀለጠ።	-12.0541
▁ቁጥሬን	-12.0541
▁ቆስሉዋል።	-12.0541
▁በሌለሁበት	-12.0541
▁በመርከብ	-12.0541
▁በመስመሮቹ	-12.0541
▁በሙዚቃ	-12.0541
▁በሚያስደንቅ	-12.0541
▁በምርጫው	-12.0541
▁በሞቃት	-12.0541
▁በሰአት	-12.0541
▁በስተጀርባ	-12.0541
▁በበአል	-12.0541
▁በተቃራኒው	-12.0541
▁በቴሌቭዥን	-12.0541
▁በቴኒስ	-12.0541
▁በቻይና	-12.0541
▁በኒውዮርክ	-12.0541
▁በንግግሩ	-12.0541
▁በአመጋገብ	-12.0541
▁በኩሬው	-12.0541
▁በካንሰር	-12.0541
▁በድንጋጤ	-12.0541
▁በጀርመን	-12.0541
▁ባደረግኩት	-12.0541
▁ብልግና	-12.0541
▁ተሳትፏል	-12.0541
▁ተስማምተናል።	-12.0541
▁ተቆርጧል።	-12.0541
▁ተነፈሰ።	-12.0541
▁ተገድጃለሁ።	-12.0541
▁ተጠንቀቁ።	-12.0541
▁ተጫውታለች።	-12.0541
▁ቴምብሮች	-12.0541
▁ትጠቀማለህ፧	-12.0541
▁ችለዋል፧	-12.0541
▁ነበረባት።	-12.0541
▁ኒውዮርክ	-12.0541
▁ኖራለች።	-12.0541
▁አለብዎት፧	-12.0541
▁አላስተዋልኩም።	-12.0541
▁አልሞከርኩም።	-12.0541
▁አልተመለሰም።	-12.0541
▁አልታወቀም።	-12.0541
▁አረጋግጣለሁ።	-12.0541
▁አረጋግጧል።	-12.0541
▁አርፍዷል።	-12.0541
▁አስቀመጠች።	-12.0541
▁አስቀድመህ	-12.0541
▁አስገርሞኛል።	-12.0541
▁አስጨናቂ	-12.0541
▁አስፈልጎ	-12.0541
▁አቆማለሁ።	-12.0541
▁አታባክን።	-12.0541
▁አያስደንቅም	-12.0541
▁አይበልጥም።	-12.0541
▁አይፈልጉም፧	-12.0541
▁አድርግልኝ፣	-12.0541
▁ኢሜይል	-12.0541
▁እለምንሃለሁ።	-12.0541
▁እሰጣለሁ።	-12.0541
▁እነግርዎታለሁ።	-12.0541
▁እንመለሳለን።	-12.0541
▁እንጨነቃለን።	-12.0541
▁እየቀለድክ	-12.0541
▁እየተንቀጠቀጠ	-12.0541
▁እየነፈሰ	-12.0541
▁እየጠበኩ	-12.0541
▁እያንዳንዳቸው	-12.0541
▁እያዳመጠ	-12.0541
▁ከህንጻው	-12.0541
▁ከመካከላቸው	-12.0541
▁ከስድስት	-12.0541
▁ከተራራው	-12.0541
▁ከአሜሪካ	-12.0541
▁ከእንቅልፌ	-12.0541
▁ከዘጠኝ	-12.0541
▁ከግማሽ	-12.0541
▁ኮሚቴ	-12.0541
▁ኮከቦች	-12.0541
▁ወለደች።	-12.0541
▁ወስደዋል፧	-12.0541
▁ወስዶብኛል።	-12.0541
▁ዘግይተህ	-12.0541
▁ዘግይተው	-12.0541
▁ዘግይታ	-12.0541
▁የሚያመሳስለን	-12.0541
▁የሚያመሳስላቸው	-12.0541
▁የሚያስጨንቀኝ	-12.0541
▁የምንናገረው	-12.0541
▁የሽያጭ	-12.0541
▁የባለቤቴ	-12.0541
▁የተጠበሰ	-12.0541
▁የእንጨት	-12.0541
▁የዩኒቨርሲቲ	-12.0541
▁ዩናይትድ	-12.0541
▁ያገኘችው	-12.0541
ቋ	-12.0541
ኋ	-12.1652
F	-12.4231
A	-12.4232
፥	-12.433
/	-12.433
;	-12.433
ኽ	-12.433
ሏ	-12.433
é	-12.5997
T	-12.7898
D	-12.7899
’	-13.0497
S	-13.373
ዀ	-13.383
ዪ	-13.383
C	-13.8733
G	-13.8733
ጕ	-13.883
K	-14.8739
H	-14.8739
‘	-14.8794
+	-14.8795
ጼ	-14.8796
ኼ	-14.8797
$	-14.8798
ዃ	-14.8799
ኟ	-14.88
“	-14.8801
ዦ	-14.8802
U	-14.8803
ጯ	-14.8804
ዠ	-14.8805
X	-14.8806
ሷ	-14.8807
ዢ	-14.8808
ጿ	-14.8809
ኧ	-14.881
Q	-14.8811
ጺ	-14.8812
ዡ	-14.8813
Y	-14.8814
(	-14.8815
ቨ	-14.8816
ቾ	-14.8817
B	-14.8818
M	-14.8819
ጪ	-14.882
ጮ	-14.8821
ጴ	-14.8822
ኸ	-14.8823
ቄ	-14.8824
ፖ	-14.8825
ኞ	-14.8826
ኹ	-14.8827
ሸ	-14.8828
ኘ	-14.8829
ኰ	-14.883
€	-14.883
«	-14.883
°	-14.883
ሟ	-14.883
ቊ	-14.883
ቿ	-14.883
ኣ	-14.883
ኾ	-14.883
ጲ	-14.883
ጵ	-14.883
ጶ	-14.883
Z	-14.883
q	-14.883
ጳ	-14.883
